<unk>	0
<s>	0
</s>	0
▁	-2.15576
__	-2.35105
▁.	-2.95331
eou	-3.04422
▁I	-3.68362
,	-3.70502
s	-3.9168
▁you	-3.94971
?	-3.99598
'	-4.09573
▁the	-4.11368
▁to	-4.18318
▁a	-4.3257
▁it	-4.8922
ing	-4.95408
▁and	-4.9574
’	-4.96172
▁is	-5.03119
▁of	-5.11345
▁in	-5.18409
▁for	-5.1864
▁!	-5.203
▁have	-5.22667
▁that	-5.27465
t	-5.27836
▁your	-5.43507
▁be	-5.45631
▁are	-5.53808
▁me	-5.5519
▁can	-5.56338
▁do	-5.57175
▁What	-5.64878
▁like	-5.67156
▁on	-5.74477
▁my	-5.75893
▁go	-5.75932
ed	-5.76442
▁with	-5.76745
▁It	-5.77446
y	-5.78511
d	-5.81031
▁we	-5.84617
▁You	-5.8545
▁this	-5.88509
▁Yes	-5.90387
m	-5.92087
about	-5.99255
ll	-6.0258
▁think	-6.08583
▁will	-6.09338
▁get	-6.14862
.	-6.15296
▁at	-6.18925
▁so	-6.1899
▁That	-6.19159
▁know	-6.21382
▁How	-6.24187
ly	-6.24907
▁don	-6.25042
▁but	-6.27452
▁there	-6.29653
▁not	-6.31533
-	-6.31997
e	-6.33171
▁s	-6.33514
▁The	-6.36222
▁t	-6.36549
▁was	-6.38668
▁what	-6.38814
▁want	-6.39329
▁see	-6.39789
▁We	-6.42329
▁one	-6.44211
▁just	-6.45742
▁all	-6.45827
▁good	-6.4677
▁time	-6.47687
▁right	-6.47945
▁some	-6.48125
very	-6.495
▁Do	-6.53436
▁would	-6.5366
▁Well	-6.54122
▁No	-6.59013
▁much	-6.62393
▁take	-6.6302
▁here	-6.63108
▁Oh	-6.63476
▁need	-6.6401
▁really	-6.64182
▁up	-6.66576
▁look	-6.69391
▁too	-6.71344
▁out	-6.72444
if	-6.73548
▁But	-6.73829
▁an	-6.74843
▁our	-6.75938
▁from	-6.76892
▁please	-6.77078
▁they	-6.77366
n	-6.77824
re	-6.79411
▁or	-6.8149
▁m	-6.83222
▁help	-6.83439
ve	-6.85611
▁he	-6.86474
▁am	-6.86536
▁make	-6.8804
▁as	-6.89501
▁Can	-6.90324
▁should	-6.90532
▁now	-6.91133
▁Thank	-6.957
▁more	-6.96885
en	-6.98939
▁how	-7.02725
▁work	-7.03249
▁them	-7.04828
▁any	-7.05623
▁got	-7.0748
▁And	-7.09255
▁come	-7.12514
▁tell	-7.1265
▁when	-7.14395
▁OK	-7.14919
▁new	-7.17679
▁way	-7.18498
▁by	-7.2083
..	-7.20848
▁did	-7.21507
▁Let	-7.22224
▁day	-7.22708
▁lot	-7.2401
▁has	-7.2447
▁love	-7.25397
▁sure	-7.25701
▁people	-7.2597
▁could	-7.2671
▁no	-7.27728
▁us	-7.28569
▁A	-7.29214
es	-7.30714
▁her	-7.30765
▁great	-7.3099
▁He	-7.31239
▁then	-7.32377
▁So	-7.32394
▁Good	-7.32558
▁They	-7.32955
▁well	-7.33097
▁had	-7.35093
▁May	-7.35781
▁she	-7.37273
▁over	-7.38042
▁sir	-7.3819
▁give	-7.38821
▁My	-7.39658
▁Why	-7.39882
▁back	-7.40603
▁Are	-7.43199
▁today	-7.44144
▁two	-7.44585
▁say	-7.45096
▁course	-7.45174
▁job	-7.46097
▁him	-7.46494
▁This	-7.46681
▁long	-7.4709
▁If	-7.47851
▁Here	-7.48269
▁first	-7.48846
▁something	-7.48962
▁There	-7.49624
▁other	-7.49897
▁try	-7.50877
▁only	-7.5139
▁Mr	-7.54815
▁Sure	-7.54874
▁company	-7.56619
▁room	-7.56652
▁sorry	-7.57371
▁Yeah	-7.57613
▁problem	-7.57925
be	-7.58176
▁better	-7.58929
▁morning	-7.59277
▁anything	-7.59382
▁play	-7.59921
▁favorite	-7.61071
▁Thanks	-7.61381
▁find	-7.61442
▁last	-7.61528
▁next	-7.62103
▁Is	-7.62117
▁also	-7.62592
▁let	-7.62861
▁hear	-7.64993
▁didn	-7.65119
▁kind	-7.65467
▁were	-7.65844
▁pay	-7.65936
▁little	-7.66373
▁buy	-7.66547
▁Have	-7.67117
▁man	-7.68208
▁Ve	-7.69466
▁always	-7.69659
▁ask	-7.69787
se	-7.7057
▁Would	-7.71216
▁than	-7.71387
▁nice	-7.71686
▁call	-7.71933
▁feel	-7.72029
▁before	-7.72313
▁must	-7.72421
▁down	-7.73945
a	-7.74187
▁Don	-7.74771
▁name	-7.75222
▁game	-7.75966
▁may	-7.77031
▁money	-7.77241
er	-7.77277
▁check	-7.78184
▁his	-7.79188
▁use	-7.79974
▁Hello	-7.80117
▁again	-7.80366
▁things	-7.81014
▁She	-7.81851
▁week	-7.82563
▁fun	-7.83299
▁re	-7.85872
▁sound	-7.86965
▁When	-7.86975
▁home	-7.8755
▁All	-7.88198
▁still	-7.88518
▁Where	-7.88573
▁off	-7.88731
▁after	-7.88811
▁tomorrow	-7.88982
▁idea	-7.89228
▁Hi	-7.90221
ies	-7.90238
▁where	-7.90606
▁mean	-7.90976
▁best	-7.91677
▁who	-7.92709
able	-7.92804
▁W	-7.93168
▁days	-7.93497
▁their	-7.93964
▁thing	-7.94047
r	-7.94265
▁put	-7.94326
▁few	-7.95154
▁quit	-7.9519
▁most	-7.95874
▁Did	-7.95959
▁does	-7.96608
▁hard	-7.97432
▁Please	-7.98692
▁friends	-7.98718
▁year	-7.9872
▁Could	-7.98737
▁Just	-7.9906
▁night	-8.0003
▁show	-8.00137
▁never	-8.00262
▁order	-8.00405
▁into	-8.00528
▁car	-8.00678
▁food	-8.01352
▁wh	-8.02147
▁Not	-8.02593
$	-8.04187
▁won	-8.04387
▁fine	-8.04527
▁hope	-8.04988
▁enjoy	-8.05063
▁doing	-8.05596
▁bad	-8.05733
▁because	-8.0589
▁number	-8.05928
▁three	-8.06128
▁around	-8.0636
▁card	-8.06778
▁start	-8.06818
▁else	-8.07338
▁Of	-8.07954
▁afraid	-8.09188
▁office	-8.09325
▁years	-8.09363
▁stay	-8.09469
▁mind	-8.09666
▁late	-8.10633
on	-8.10778
▁school	-8.11198
▁every	-8.1145
▁month	-8.13226
▁watch	-8.14255
▁seem	-8.14293
▁meet	-8.14423
▁E	-8.14879
▁business	-8.15383
▁place	-8.15559
▁English	-8.16164
▁keep	-8.17124
▁Ok	-8.17309
▁eat	-8.17522
▁change	-8.18096
▁working	-8.18484
▁big	-8.1882
▁soon	-8.19331
▁B	-8.20493
▁price	-8.20776
▁drink	-8.21147
▁bus	-8.21184
▁mad	-8.21444
▁C	-8.21718
▁house	-8.21894
▁yes	-8.21934
▁afternoon	-8.22178
▁Really	-8.22322
▁leave	-8.23336
▁doesn	-8.23535
▁even	-8.24435
in	-8.24573
▁another	-8.25936
▁Chinese	-8.26336
▁thought	-8.26487
al	-8.26883
▁said	-8.27222
▁isn	-8.27258
st	-8.27335
▁same	-8.27812
▁such	-8.27853
▁minutes	-8.28603
o	-8.28738
▁which	-8.29213
▁learn	-8.29296
▁class	-8.29359
▁everything	-8.30088
ting	-8.30221
any	-8.30441
▁P	-8.30693
▁might	-8.30793
▁dollars	-8.31013
each	-8.31027
▁Now	-8.31097
▁read	-8.3188
▁friend	-8.32506
▁bring	-8.32885
▁In	-8.33162
▁ready	-8.34258
▁haven	-8.34435
▁happy	-8.35132
▁guess	-8.35928
▁old	-8.36182
▁talk	-8.36183
▁different	-8.36243
▁believe	-8.37678
▁happen	-8.37878
▁already	-8.38225
▁yet	-8.38442
▁wait	-8.39063
▁Your	-8.39178
▁d	-8.3924
▁enough	-8.39383
▁while	-8.39472
▁account	-8.39892
▁Okay	-8.39987
th	-8.40077
▁plan	-8.40216
▁service	-8.40902
▁turn	-8.41102
▁offer	-8.42979
le	-8.43362
▁bit	-8.43884
▁pretty	-8.442
▁tonight	-8.44219
▁important	-8.44852
▁done	-8.45646
▁moment	-8.45863
together	-8.46112
▁later	-8.46414
▁hav	-8.46768
▁worry	-8.4712
ry	-8.47487
ever	-8.4779
▁wrong	-8.48173
▁thank	-8.48268
▁special	-8.4861
▁Hey	-8.48635
▁dinner	-8.48667
▁phone	-8.48812
▁family	-8.48832
▁party	-8.48869
▁understand	-8.4972
▁through	-8.50249
▁live	-8.50905
▁away	-8.51687
▁usual	-8.52101
▁send	-8.53615
▁part	-8.5369
▁beautiful	-8.53693
▁high	-8.53763
▁thanks	-8.54373
▁coming	-8.54745
▁often	-8.5505
▁left	-8.55953
▁ever	-8.56062
▁small	-8.5625
▁evening	-8.56723
▁S	-8.57067
▁speak	-8.57948
▁computer	-8.57986
▁meeting	-8.58383
use	-8.59183
▁remember	-8.59504
ld	-8.59766
out	-8.59934
▁Look	-8.60083
▁open	-8.60395
▁city	-8.60538
▁easy	-8.60938
▁Will	-8.6122
▁free	-8.61372
▁stop	-8.61396
▁Great	-8.61418
an	-8.6144
▁10	-8.61505
▁Sorry	-8.61924
▁care	-8.63237
ment	-8.63418
▁hours	-8.65062
▁experience	-8.65077
▁prefer	-8.65155
▁type	-8.65427
▁country	-8.65456
▁music	-8.65849
▁For	-8.65946
▁someone	-8.66593
▁yourself	-8.66806
▁five	-8.66836
▁set	-8.67007
▁world	-8.67052
▁glad	-8.67184
used	-8.67213
▁spend	-8.67325
▁Who	-8.67553
▁interested	-8.67618
▁sign	-8.6777
▁p	-8.67988
▁welcome	-8.68306
▁weekend	-8.68348
▁miss	-8.6845
▁life	-8.68938
▁true	-8.69048
hose	-8.69129
▁book	-8.69133
▁visit	-8.69342
▁agree	-8.69478
▁Come	-8.69517
▁China	-8.69549
▁seat	-8.69637
ow	-8.69639
▁own	-8.69782
▁wonder	-8.6979
▁movie	-8.69964
▁far	-8.70562
or	-8.70939
went	-8.70979
▁interesting	-8.71546
▁move	-8.71973
▁suppose	-8.72127
▁being	-8.72963
▁myself	-8.73113
▁information	-8.73126
▁Exc	-8.73573
▁pick	-8.73696
▁hour	-8.7375
▁until	-8.75295
▁apartment	-8.75896
▁2	-8.75971
▁nothing	-8.76768
▁busy	-8.77193
▁expensive	-8.77396
▁charge	-8.77546
▁trip	-8.77844
▁matter	-8.77852
▁coffee	-8.78127
▁hot	-8.78583
▁ticket	-8.78619
▁water	-8.78649
▁cloth	-8.79193
▁1	-8.7929
▁study	-8.80412
▁weather	-8.80457
▁suit	-8.81093
▁To	-8.81204
▁flight	-8.81703
▁both	-8.8171
▁guy	-8.82248
▁second	-8.82252
▁restaurant	-8.82272
▁table	-8.82341
▁R	-8.83033
▁See	-8.83249
l	-8.83748
▁found	-8.83769
▁person	-8.8386
▁actually	-8.83904
▁3	-8.84052
▁large	-8.84389
▁cost	-8.84476
▁position	-8.84623
▁un	-8.8477
▁walk	-8.84924
▁ten	-8.85236
▁N	-8.85301
▁decide	-8.85371
▁form	-8.85853
▁yesterday	-8.85946
▁bank	-8.86191
▁case	-8.86429
▁Certainly	-8.86569
▁D	-8.86636
▁Mary	-8.86645
▁interview	-8.8671
▁fill	-8.86724
▁four	-8.86728
▁possible	-8.86845
▁credit	-8.87319
▁half	-8.87562
▁By	-8.88088
▁park	-8.8828
▁sometime	-8.8831
▁hotel	-8.88456
▁5	-8.88895
▁ago	-8.89188
▁end	-8.89365
▁train	-8.8949
▁dance	-8.89653
▁Does	-8.90066
▁wear	-8.90193
▁wife	-8.90569
▁doctor	-8.90721
▁Our	-8.90861
▁perfect	-8.91037
time	-8.91131
▁air	-8.91375
▁wish	-8.92035
▁bee	-8.92344
▁BMO	-8.92413
▁everyone	-8.92457
▁line	-8.92616
▁called	-8.92655
▁once	-8.92892
▁John	-8.92925
It	-8.93085
▁full	-8.93322
▁manager	-8.9382
▁feeling	-8.93963
▁cold	-8.94264
▁minute	-8.95088
▁reservation	-8.95121
▁Fine	-8.95128
▁short	-8.95251
▁run	-8.95667
▁probabl	-8.95691
▁boss	-8.96122
▁T	-8.96224
▁under	-8.96281
hich	-8.96346
▁availab	-8.96844
▁near	-8.97429
▁bought	-8.97501
▁department	-8.98364
▁ma	-8.98634
▁calling	-8.9869
▁pass	-8.98714
▁color	-8.9882
▁though	-8.9887
▁serious	-8.99983
▁lost	-9.00088
▁New	-9.00506
▁market	-9.0073
▁parents	-9.00979
▁tea	-9.01178
▁O	-9.01536
▁Right	-9.0165
is	-9.0188
▁bill	-9.019
▁weeks	-9.02165
ation	-9.02477
taking	-9.02519
▁summer	-9.04009
▁cash	-9.04042
▁return	-9.04393
▁team	-9.05251
at	-9.05413
▁Friday	-9.05507
▁deal	-9.05621
▁student	-9.05899
▁Smith	-9.06094
▁travel	-9.06117
▁started	-9.06172
▁birthday	-9.06281
▁date	-9.06451
▁As	-9.06546
uan	-9.06646
▁chance	-9.06704
▁saw	-9.06705
▁wonderful	-9.06728
▁hand	-9.06749
▁20	-9.06805
▁Beijing	-9.07042
ity	-9.07325
▁since	-9.07453
▁lunch	-9.07744
▁talking	-9.07928
▁break	-9.08249
▁paper	-9.08277
▁One	-9.0838
▁recommend	-9.08638
▁i	-9.08705
▁difficult	-9.08997
I	-9.09116
▁married	-9.09195
▁g	-9.092
▁accept	-9.09564
▁letter	-9.09754
▁drive	-9.09836
▁waiting	-9.10039
▁children	-9.10191
▁appointment	-9.1025
▁Tom	-9.10477
xcuse	-9.10558
ried	-9.10816
▁size	-9.10887
▁sales	-9.10956
▁point	-9.10973
▁sleep	-9.11137
it	-9.11307
us	-9.11332
▁real	-9.11475
▁write	-9.11658
▁hair	-9.11687
▁TV	-9.11742
▁6	-9.12342
▁exercise	-9.12495
▁dress	-9.12536
You	-9.12729
▁American	-9.12904
▁Sound	-9.12996
▁appreciate	-9.13297
▁shopping	-9.13358
bout	-9.13735
▁wouldn	-9.13768
▁7	-9.13823
▁couple	-9.13905
▁months	-9.13931
▁deposit	-9.14229
▁girl	-9.14603
everal	-9.1496
▁expect	-9.14961
▁final	-9.15058
▁holiday	-9.1506
▁products	-9.1509
▁trouble	-9.15384
to	-9.15565
▁On	-9.15698
▁times	-9.15758
▁came	-9.15791
▁rent	-9.16933
But	-9.17049
,000	-9.17105
▁pleasure	-9.17175
▁news	-9.17268
00	-9.17369
▁six	-9.17508
▁fast	-9.1753
ce	-9.17758
▁deliver	-9.17785
▁o	-9.17846
▁along	-9.18026
▁least	-9.18035
▁sit	-9.18098
▁tired	-9.18141
▁couldn	-9.18354
▁rest	-9.18613
▁dur	-9.18879
ion	-9.19113
▁choose	-9.19358
    ▁listen	-9.19522
▁aren	-9.19606
▁problems	-9.19975
▁books	-9.2008
h	-9.20866
The	-9.20944
and	-9.21126
▁Take	-9.2132
▁test	-9.21425
▁red	-9.21658
bye	-9.22153
▁whole	-9.22486
▁teacher	-9.22564
▁rate	-9.22771
▁street	-9.22832
▁rain	-9.22842
▁living	-9.22922
▁store	-9.2304
▁word	-9.23127
▁cool	-9.23197
▁close	-9.24162
▁cut	-9.244
▁wasn	-9.2463
▁key	-9.24691
▁vacation	-9.24699
▁hold	-9.247
▁After	-9.2502
▁face	-9.2524
▁At	-9.25259
▁list	-9.25292
▁Miss	-9.25386
▁mak	-9.2574
▁F	-9.25753
▁question	-9.25901
▁shall	-9.26206
▁clean	-9.26496
▁contract	-9.26546
▁insurance	-9.26559
▁forget	-9.26617
▁per	-9.26768
▁report	-9.27094
est	-9.2787
▁floor	-9.27985
▁Some	-9.28042
clock	-9.28242
▁major	-9.28474
▁Saturday	-9.28924
▁forward	-9.2895
▁sell	-9.29582
▁questions	-9.29602
▁university	-9.29899
▁catch	-9.29979
▁customer	-9.29994
way	-9.30004
▁tra	-9.30073
▁interest	-9.30076
▁stand	-9.30177
▁taste	-9.30383
▁outside	-9.30407
▁First	-9.30429
▁especial	-9.3044
▁film	-9.30473
▁machine	-9.30772
▁Go	-9.30819
▁certainly	-9.30921
▁light	-9.31322
u	-9.3163
ose	-9.31712
ok	-9.31921
▁either	-9.32237
▁fit	-9.32484
▁hate	-9.32896
▁receive	-9.33233
▁worked	-9.33318
▁language	-9.33335
▁cover	-9.33338
▁mother	-9.33411
▁apply	-9.33458
▁speaking	-9.33905
▁seven	-9.33934
▁salar	-9.34311
▁college	-9.34338
▁exciting	-9.34379
▁movies	-9.34788
▁8	-9.3503
▁sale	-9.35082
▁wine	-9.35174
the	-9.3523
▁fact	-9.35437
▁terrible	-9.36006
▁b	-9.36013
▁lose	-9.36136
▁finished	-9.36179
▁join	-9.36302
▁husband	-9.36382
▁style	-9.36594
▁station	-9.36736
▁complete	-9.36741
▁hundred	-9.3695
▁H	-9.37038
▁forgot	-9.37076
▁means	-9.37219
▁shop	-9.37271
▁extra	-9.3729
▁ok	-9.37551
ffic	-9.3762
between	-9.37742
▁window	-9.37943
▁Sir	-9.37991
▁broke	-9.38055
up	-9.3811
▁Be	-9.38297
▁Anything	-9.38364
▁careful	-9.3853
▁past	-9.38699
▁reason	-9.38723
▁luck	-9.38788
ecause	-9.38789
▁th	-9.38807
most	-9.38863
▁program	-9.38869
▁clear	-9.3908
▁present	-9.39141
▁anyway	-9.39217
▁ahead	-9.39259
ful	-9.39283
▁sick	-9.39385
▁Bye	-9.39425
▁top	-9.3955
▁twenty	-9.39596
▁c	-9.39616
▁thirty	-9.39754
▁finish	-9.39913
▁young	-9.40204
▁save	-9.40215
▁side	-9.41069
ice	-9.4108
ny	-9.41094
▁building	-9.41107
f	-9.4116
▁quality	-9.41377
▁exact	-9.41405
▁promise	-9.41416
▁total	-9.4161
▁Wait	-9.417
ather	-9.41827
We	-9.42003
▁notice	-9.4203
▁yeah	-9.42205
▁gift	-9.42208
▁earl	-9.42335
▁suggest	-9.42399
front	-9.4254
▁U	-9.42667
▁popular	-9.42848
▁Me	-9.43013
▁4	-9.43343
▁L	-9.43371
k	-9.4364
▁cook	-9.43727
▁receipt	-9.4389
ous	-9.43899
▁kids	-9.43918
▁white	-9.4398
▁Actual	-9.4402
▁fish	-9.44202
▁15	-9.44567
▁paid	-9.44713
ers	-9.44848
▁main	-9.45245
▁consider	-9.45489
▁winter	-9.45575
▁chicken	-9.45582
▁plann	-9.46176
▁M	-9.46319
▁weight	-9.46406
▁online	-9.46805
▁personal	-9.4695
▁almo	-9.47164
▁Sometime	-9.4733
▁choice	-9.47357
▁door	-9.47738
▁address	-9.4783
▁stuff	-9.47989
▁Alright	-9.48187
▁single	-9.48485
ally	-9.48679
you	-9.48877
▁become	-9.4894
▁okay	-9.49011
▁system	-9.491
▁amount	-9.49118
▁bag	-9.4931
▁bed	-9.49458
▁figure	-9.49575
▁tour	-9.49585
▁York	-9.49593
▁lucky	-9.49909
▁kinds	-9.50159
▁Monday	-9.50207
▁thousand	-9.50218
▁excellent	-9.50221
mail	-9.50341
▁allow	-9.50601
▁100	-9.50606
▁father	-9.50921
▁Nic	-9.50934
▁story	-9.50959
▁meal	-9.51011
▁health	-9.51129
▁America	-9.51147
▁passport	-9.51414
▁surprise	-9.51788
▁kitchen	-9.52008
▁condition	-9.5203
▁relax	-9.52349
▁Th	-9.52509
▁manage	-9.5257
▁honest	-9.52643
▁Ma	-9.52708
▁Bob	-9.52719
▁eyes	-9.52759
am	-9.52829
▁arrive	-9.52865
▁tickets	-9.52985
▁Li	-9.53094
▁decision	-9.53232
▁provide	-9.53249
▁fall	-9.53316
▁sister	-9.5344
day	-9.53574
▁worth	-9.53608
▁Tell	-9.53664
IB	-9.53734
▁head	-9.53735
What	-9.5379
▁Any	-9.53954
▁sports	-9.54148
▁robot	-9.54443
▁recently	-9.54491
▁fresh	-9.54603
▁project	-9.54793
as	-9.54909
▁200	-9.55058
▁foreign	-9.55076
30	-9.55108
▁brother	-9.55117
▁amazing	-9.55128
▁road	-9.55521
▁board	-9.55635
▁sort	-9.55691
▁hurt	-9.55757
ten	-9.55887
▁handle	-9.55999
▁wash	-9.56052
▁instead	-9.56335
▁advice	-9.5634
▁cake	-9.56362
▁share	-9.56362
▁message	-9.56477
▁Mom	-9.56484
▁Ah	-9.56612
▁anyone	-9.57161
▁mine	-9.57429
▁needs	-9.57605
▁shoes	-9.579
▁training	-9.58057
▁follow	-9.58145
▁boy	-9.58186
ng	-9.58388
▁less	-9.58485
▁add	-9.58488
▁schedule	-9.58669
▁Jack	-9.58938
▁lovely	-9.59027
▁double	-9.59038
▁running	-9.59157
▁madam	-9.59157
▁attend	-9.59342
▁12	-9.5943
▁black	-9.59512
▁countries	-9.59544
▁convenient	-9.59686
▁leav	-9.59901
▁50	-9.59939
▁30	-9.60087
▁answer	-9.60178
ance	-9.60216
▁cup	-9.60419
▁famous	-9.60433
▁detail	-9.60597
not	-9.61496
▁breakfast	-9.61517
How	-9.61533
▁al	-9.61828
erhaps	-9.61964
▁begin	-9.62144
▁local	-9.62175
▁Beside	-9.62285
▁adventures	-9.62592
▁kidding	-9.62844
▁London	-9.63511
▁discuss	-9.63529
▁document	-9.63795
▁brand	-9.63887
▁fee	-9.6412
▁Christmas	-9.64208
▁mention	-9.64215
ness	-9.64217
▁bar	-9.64471
▁employees	-9.64762
▁places	-9.64772
▁baby	-9.64877
▁song	-9.64913
▁fruit	-9.64969
he	-9.64978
▁internet	-9.64981
▁Dad	-9.65695
felt	-9.65772
one	-9.65835
▁future	-9.6626
▁particular	-9.66279
▁pound	-9.66317
▁child	-9.66506
▁wedding	-9.66557
▁soup	-9.66729
▁discount	-9.66888
▁Ver	-9.66936
▁whether	-9.66966
▁dream	-9.66968
less	-9.67068
w	-9.67159
▁With	-9.67231
▁transfer	-9.67496
▁pair	-9.6785
moking	-9.68115
▁ones	-9.68185
▁sun	-9.68266
▁safe	-9.68656
▁exchange	-9.68686
▁desk	-9.69067
▁craz	-9.69133
▁Hmm	-9.69249
▁straight	-9.69763
▁vegetable	-9.6982
▁newspaper	-9.69824
▁Ms	-9.69834
▁inside	-9.70069
▁eight	-9.70277
▁touch	-9.7029
▁mail	-9.70395
▁file	-9.70398
▁contact	-9.70535
▁strong	-9.70635
▁design	-9.70823
▁f	-9.70893
▁teach	-9.71291
▁difference	-9.71461
all	-9.71477
▁area	-9.71805
▁US	-9.71849
▁blue	-9.7199
▁medicine	-9.72012
▁grow	-9.72098
national	-9.72433
ually	-9.72562
▁record	-9.72633
▁example	-9.72741
▁Bill	-9.72891
me	-9.73028
▁quiet	-9.73485
▁application	-9.73504
▁shouldn	-9.73594
▁beer	-9.73857
▁excited	-9.74163
▁loan	-9.74215
▁delicious	-9.74248
ctually	-9.74544
▁longer	-9.74671
▁depends	-9.74777
▁treat	-9.74852
▁fair	-9.74942
▁carry	-9.75141
▁town	-9.75157
old	-9.75177
▁piece	-9.7533
▁others	-9.75502
▁hit	-9.75533
▁green	-9.75667
▁library	-9.75765
▁sense	-9.75884
▁afford	-9.75921
▁public	-9.75926
▁payment	-9.76062
▁package	-9.76063
▁shirt	-9.76166
D	-9.76226
▁driv	-9.76324
▁plane	-9.7651
▁dear	-9.76642
▁sweet	-9.76719
▁invite	-9.76735
▁hospital	-9.76824
▁Sha	-9.76915
▁fashion	-9.7694
▁funn	-9.76965
▁luggage	-9.77151
▁chocolate	-9.77311
▁performance	-9.7732
oh	-9.77724
▁r	-9.77776
▁taxi	-9.78103
▁G	-9.78274
▁staff	-9.78359
▁picture	-9.78868
▁magazine	-9.78875
▁ball	-9.78946
▁bottle	-9.78974
ou	-9.79035
▁graduate	-9.79248
▁space	-9.79381
▁simple	-9.79464
▁animal	-9.79675
▁worried	-9.7969
▁French	-9.7976
▁Everything	-9.79783
▁current	-9.79793
▁People	-9.80173
gone	-9.80251
▁meat	-9.80337
king	-9.80513
▁easi	-9.80528
▁quickly	-9.8057
▁Nothing	-9.8059
▁match	-9.80622
▁Most	-9.80863
▁celebrate	-9.8091
▁saying	-9.81054
man	-9.81214
▁Japan	-9.81252
▁heavy	-9.8126
▁inter	-9.81294
▁beach	-9.81417
▁diet	-9.81557
▁low	-9.8199
M	-9.82042
▁sent	-9.82048
▁Sunday	-9.82078
▁swimm	-9.82272
▁step	-9.82345
▁girlfriend	-9.82417
▁rooms	-9.82658
▁cooking	-9.82819
▁ride	-9.8282
▁hurry	-9.82898
▁co	-9.82901
▁Mrs	-9.8308
▁sub	-9.83112
▁prices	-9.8314
▁Two	-9.83193
▁field	-9.83451
▁stock	-9.83504
▁view	-9.83553
▁corner	-9.83735
▁government	-9.8375
▁football	-9.83841
And	-9.83842
▁heart	-9.84525
▁behind	-9.84553
▁pet	-9.84673
▁driver	-9.84931
▁rule	-9.85429
▁writing	-9.85554
ext	-9.85805
▁adventure	-9.85928
▁warm	-9.86143
lenty	-9.8616
ich	-9.86235
▁cream	-9.86243
▁glass	-9.8635
▁police	-9.86627
▁Give	-9.86669
▁client	-9.87097
▁Tuesday	-9.87101
▁Anyway	-9.87146
▁correct	-9.87172
▁Ha	-9.87184
▁daughter	-9.8723
▁bigge	-9.87295
▁clock	-9.87463
▁necessar	-9.87613
▁post	-9.87734
▁fix	-9.87751
▁counter	-9.87834
▁blood	-9.8795
▁histor	-9.88093
▁higher	-9.88129
▁include	-9.88296
▁product	-9.88462
▁airport	-9.88833
▁practice	-9.8884
▁suggestion	-9.89049
go	-9.89302
▁resume	-9.89391
▁-	-9.89564
hai	-9.89715
▁box	-9.89843
▁percent	-9.89928
▁bet	-9.90244
▁eye	-9.90724
▁egg	-9.90788
▁Mike	-9.908
bsolutely	-9.91089
▁Many	-9.91247
▁comfortable	-9.91363
▁Jim	-9.91437
▁Al	-9.91452
ty	-9.91543
▁dog	-9.9155
▁bor	-9.91772
▁skills	-9.91831
▁son	-9.91842
▁dancing	-9.91893
▁met	-9.91916
▁cheap	-9.92319
▁David	-9.92381
▁print	-9.92397
dy	-9.92435
▁Get	-9.92574
age	-9.92698
▁healthy	-9.92821
ch	-9.92951
▁mom	-9.93082
▁girls	-9.931
▁copy	-9.93144
son	-9.93217
ade	-9.93285
▁private	-9.93299
▁y	-9.93386
▁round	-9.93436
p	-9.93582
▁camp	-9.93687
▁menu	-9.94286
▁spot	-9.944
giving	-9.94604
▁Wang	-9.95074
▁anymore	-9.95199
▁earlie	-9.95297
▁fly	-9.95315
▁skin	-9.95319
ese	-9.95474
▁K	-9.95478
▁season	-9.95549
nce	-9.9564
▁flowers	-9.95772
▁character	-9.96018
▁nervous	-9.96072
▁education	-9.96098
▁An	-9.96457
▁accident	-9.96641
▁costs	-9.96821
▁happens	-9.9686
▁Internet	-9.97036
▁cheaper	-9.97066
▁somewhere	-9.97084
▁dishes	-9.971
▁telephone	-9.97148
▁general	-9.9734
▁stress	-9.97421
▁brough	-9.97664
▁bother	-9.9783
▁environment	-9.97915
▁benefit	-9.98014
▁serve	-9.98325
▁require	-9.98379
▁opinion	-9.98927
▁woman	-9.9893
▁star	-9.98999
five	-9.99054
▁snow	-9.99466
▁mov	-9.99486
▁items	-9.99635
▁seeing	-9.99721
▁nine	-9.99889
▁Congratulation	-9.99922
▁concert	-10.0006
▁overtime	-10.001
▁collect	-10.0016
▁reserve	-10.0026
▁Wh	-10.0038
aught	-10.004
▁Steven	-10.004
▁win	-10.0049
▁raise	-10.0082
▁register	-10.0092
▁policy	-10.0096
▁Hotel	-10.0099
▁hi	-10.0104
▁tree	-10.0118
town	-10.0122
▁arrange	-10.0128
▁fire	-10.0156
▁w	-10.0168
▁prepare	-10.0174
▁pan	-10.0183
▁section	-10.0194
▁ba	-10.0195
▁salad	-10.02
▁juice	-10.0209
lcome	-10.0221
▁rush	-10.0221
▁cause	-10.0221
▁beef	-10.0231
▁explain	-10.0287
new	-10.0303
▁speed	-10.0324
een	-10.0325
▁arm	-10.0345
▁Jane	-10.0355
▁issue	-10.0365
▁Susan	-10.0386
▁further	-10.0388
▁Day	-10.0407
So	-10.0407
▁camera	-10.0434
▁pain	-10.0437
▁Peter	-10.0452
▁compani	-10.0468
i	-10.0469
▁jump	-10.0478
▁website	-10.049
▁honey	-10.0503
▁trade	-10.0514
▁according	-10.0516
▁booked	-10.0527
▁control	-10.0548
▁terms	-10.0553
▁period	-10.0562
kept	-10.0565
▁damage	-10.057
▁ice	-10.0577
▁Taiwan	-10.0592
▁Bank	-10.0592
▁improve	-10.0596
▁Absolutely	-10.0601
▁its	-10.0615
▁Par	-10.0625
▁bright	-10.063
If	-10.0634
▁introduce	-10.0716
▁pressure	-10.0725
our	-10.073
▁Compan	-10.0737
um	-10.0741
▁cents	-10.0754
▁third	-10.0772
▁regular	-10.0788
▁snack	-10.08
▁group	-10.0801
▁dessert	-10.0802
▁State	-10.0805
unny	-10.0811
▁throw	-10.0825
▁pack	-10.0844
▁increase	-10.085
▁Isn	-10.0873
▁checking	-10.0888
▁immediate	-10.0909
▁promotion	-10.091
▁quick	-10.091
N	-10.0917
▁effect	-10.0921
▁opportunity	-10.0926
▁11	-10.0928
▁hobb	-10.0929
▁spen	-10.094
▁Every	-10.0968
0	-10.0983
▁God	-10.1012
▁sing	-10.1015
▁middle	-10.1016
▁pictures	-10.1016
ary	-10.1042
▁Didn	-10.1057
▁results	-10.107
▁gas	-10.1085
▁gym	-10.1122
▁truth	-10.1124
▁Shang	-10.1127
▁spring	-10.1131
▁cancel	-10.1152
That	-10.1186
▁art	-10.12
▁Brown	-10.1222
▁fantastic	-10.1236
▁hung	-10.1251
▁pull	-10.1263
▁sight	-10.1271
▁support	-10.1282
ave	-10.1282
▁exam	-10.1287
▁25	-10.129
▁stor	-10.1295
▁definite	-10.1313
▁oil	-10.1321
▁law	-10.1328
ble	-10.1336
▁video	-10.1344
▁Madam	-10.1344
▁temperature	-10.1347
▁subject	-10.1347
▁fight	-10.1349
▁Mark	-10.1352
He	-10.1355
▁tax	-10.1361
nna	-10.1362
▁nose	-10.1365
▁laugh	-10.1369
▁fifteen	-10.1375
▁Should	-10.1376
▁block	-10.1384
▁milk	-10.1399
A	-10.144
▁fault	-10.1459
▁relationship	-10.1459
▁mistake	-10.1467
▁hire	-10.1499
▁hop	-10.1554
alone	-10.1564
▁borrow	-10.1569
ennis	-10.1569
▁club	-10.157
▁Yuan	-10.157
▁article	-10.1577
▁basic	-10.158
▁successful	-10.1586
▁model	-10.1591
▁career	-10.1593
▁changed	-10.16
▁professional	-10.1605
g	-10.1614
▁wall	-10.1631
▁works	-10.164
▁player	-10.1655
▁develop	-10.1665
▁dark	-10.168
▁except	-10.1682
▁Like	-10.1685
▁Street	-10.1685
▁colleague	-10.1687
▁abroad	-10.1691
▁energ	-10.17
xactly	-10.1702
▁ear	-10.1716
aking	-10.1725
▁purchase	-10.1738
▁vote	-10.1747
▁saving	-10.1751
▁Lin	-10.1778
▁challenge	-10.1782
▁furniture	-10.1803
▁anywhere	-10.1807
her	-10.1816
▁Um	-10.1838
ic	-10.1856
▁40	-10.1863
▁reasonable	-10.1872
▁page	-10.1874
▁degree	-10.188
▁cell	-10.1894
▁White	-10.1895
▁fat	-10.1919
▁sweater	-10.1925
▁beginn	-10.1928
▁confirm	-10.193
▁activit	-10.1937
▁Last	-10.1945
▁tough	-10.1952
▁common	-10.1955
ability	-10.1976
▁dry	-10.1988
▁Even	-10.1988
▁bedroom	-10.2008
ate	-10.2016
work	-10.202
▁rock	-10.2033
ne	-10.2039
▁Olympic	-10.2039
▁Thursday	-10.2039
▁advance	-10.2046
▁soft	-10.2073
lright	-10.2095
▁reach	-10.2128
▁coat	-10.2144
▁hands	-10.2158
▁homework	-10.2165
▁level	-10.2173
▁bathroom	-10.2176
▁Or	-10.2178
▁fifty	-10.2184
▁remind	-10.2189
▁cars	-10.2194
▁responsibl	-10.2195
▁drop	-10.2208
taken	-10.2208
▁lower	-10.2209
▁due	-10.2228
Do	-10.2247
▁dollar	-10.2249
▁smart	-10.2262
tion	-10.2281
▁financial	-10.2285
▁pity	-10.2289
so	-10.2289
efinitely	-10.2303
wise	-10.2311
▁ideas	-10.2315
▁kill	-10.2326
▁responsibilit	-10.2331
▁smoke	-10.2365
▁apple	-10.2378
▁certain	-10.2391
ie	-10.2399
They	-10.2404
▁bags	-10.2411
▁sea	-10.2428
▁factory	-10.243
▁yu	-10.2431
▁joke	-10.2434
▁licens	-10.2452
▁tall	-10.2485
▁Everyone	-10.2487
▁lead	-10.2503
▁human	-10.2528
▁situation	-10.2531
▁prescription	-10.2531
▁shape	-10.2533
▁tw	-10.2537
▁crowd	-10.2538
▁forty	-10.254
▁process	-10.2541
▁spare	-10.2547
▁boxes	-10.2552
▁imagine	-10.2557
▁steak	-10.256
▁traditional	-10.257
▁spic	-10.2583
▁score	-10.2598
▁marketing	-10.2602
▁Since	-10.2609
om	-10.2625
expected	-10.2639
▁shipment	-10.2646
Can	-10.2651
▁pop	-10.2654
▁center	-10.2658
▁Exactly	-10.266
▁Today	-10.2674
▁trust	-10.2679
▁hang	-10.2727
▁value	-10.2729
▁miles	-10.2739
▁Co	-10.274
▁guide	-10.2751
▁nights	-10.2764
▁body	-10.278
▁Paul	-10.2783
▁Uh	-10.2783
▁urgent	-10.2784
▁smell	-10.2784
▁headache	-10.2785
▁express	-10.2797
▁bread	-10.2813
▁non	-10.2824
▁includ	-10.2832
▁included	-10.2853
▁Fro	-10.287
▁continue	-10.2877
▁women	-10.2912
▁picnic	-10.2913
▁marriage	-10.2914
▁research	-10.2915
▁sold	-10.2921
▁rose	-10.2926
▁million	-10.2931
▁agreement	-10.2943
▁standard	-10.2947
▁danger	-10.2957
▁enter	-10.2968
▁favor	-10.2988
ring	-10.299
▁limit	-10.2997
▁proper	-10.3027
▁prepared	-10.3029
▁studie	-10.3036
▁l	-10.3039
▁k	-10.3044
▁semester	-10.3046
▁everybody	-10.3049
▁willing	-10.3057
▁sport	-10.3073
▁climb	-10.3089
▁colors	-10.309
▁impress	-10.3114
▁Green	-10.3123
▁mountain	-10.3154
▁wors	-10.3176
▁visa	-10.3178
▁push	-10.3186
▁act	-10.3187
▁email	-10.3193
▁deep	-10.32
▁inform	-10.3219
▁fax	-10.3244
ball	-10.3269
8	-10.327
▁advertis	-10.329
▁built	-10.33
▁Remember	-10.3301
▁motor	-10.3312
▁dozen	-10.3317
▁advertisement	-10.3317
▁shower	-10.3327
▁helpful	-10.3335
▁cafe	-10.3342
▁excuse	-10.3347
▁perhaps	-10.3354
May	-10.3355
T	-10.3358
▁connect	-10.3363
▁guarantee	-10.3364
▁Three	-10.3366
▁Ro	-10.3368
hang	-10.3368
light	-10.3369
▁Hong	-10.3377
▁age	-10.3378
c	-10.3405
▁entertain	-10.3407
▁walking	-10.3413
▁ring	-10.342
▁secret	-10.3426
▁Happ	-10.3428
▁success	-10.3434
▁..	-10.3434
▁action	-10.3444
ril	-10.345
▁Wednesday	-10.3451
▁secretary	-10.3453
▁industry	-10.3453
▁awful	-10.3459
▁describe	-10.3475
▁familiar	-10.3486
▁pleasant	-10.3486
C	-10.3487
▁wake	-10.3508
▁dish	-10.3523
▁stick	-10.3525
▁Mak	-10.3534
▁Ap	-10.3537
de	-10.3558
▁500	-10.3558
▁guests	-10.3566
▁bonus	-10.3589
▁roll	-10.3596
ship	-10.3599
v	-10.3615
▁mood	-10.3621
rice	-10.3625
▁born	-10.3633
▁smile	-10.3642
▁direct	-10.3654
▁leg	-10.3668
▁formal	-10.3668
▁count	-10.3678
▁normal	-10.3685
rs	-10.37
▁involve	-10.3711
▁pretend	-10.373
▁certificate	-10.3746
Thank	-10.375
▁realize	-10.3777
▁firm	-10.3789
▁plant	-10.383
▁meter	-10.3838
ted	-10.3847
▁bike	-10.3856
▁pizza	-10.3861
▁e	-10.3862
▁Office	-10.3872
▁deserve	-10.3873
▁knowledge	-10.3875
▁apologize	-10.3877
▁withdraw	-10.3877
▁habit	-10.3877
▁garden	-10.3878
cross	-10.388
▁natural	-10.3913
▁base	-10.3913
body	-10.3916
▁doubt	-10.3917
▁ski	-10.3918
▁ga	-10.394
▁upset	-10.395
▁press	-10.3984
▁Say	-10.4005
▁laundry	-10.4018
▁cigarette	-10.4018
▁commission	-10.4019
▁assistant	-10.402
▁classic	-10.4023
▁quarter	-10.4023
▁option	-10.4031
▁pieces	-10.4051
▁Mmm	-10.4052
uch	-10.4072
▁breath	-10.4075
▁search	-10.4099
▁Keep	-10.4109
▁Sam	-10.4114
▁export	-10.4137
▁hasn	-10.4144
▁jam	-10.415
▁duty	-10.4163
▁German	-10.4164
▁awesome	-10.4164
▁lights	-10.4165
▁poor	-10.4165
▁fever	-10.4184
▁rid	-10.4198
▁tie	-10.4199
older	-10.4216
▁computers	-10.4222
▁Jenn	-10.4226
▁avoid	-10.424
S	-10.4258
▁produce	-10.4268
▁bath	-10.4276
▁Accord	-10.4311
▁honor	-10.4316
tention	-10.4328
▁Unit	-10.4331
▁cheese	-10.4339
▁men	-10.4342
ily	-10.4364
▁parties	-10.4374
ar	-10.4378
▁writ	-10.4378
▁tight	-10.4386
▁keeping	-10.4392
▁His	-10.4398
▁fare	-10.44
ggage	-10.4415
▁swim	-10.4419
▁repair	-10.445
▁sandwich	-10.4466
▁slow	-10.4479
▁simpl	-10.448
▁trick	-10.4489
▁ca	-10.4499
▁Hone	-10.4506
▁heat	-10.4515
ard	-10.4516
als	-10.4527
▁Try	-10.4529
▁skirt	-10.4536
▁pool	-10.4553
▁bottom	-10.4563
▁fail	-10.4565
employ	-10.4571
top	-10.458
are	-10.4586
▁pa	-10.4599
▁respect	-10.4599
▁conference	-10.462
3	-10.4636
▁18	-10.4642
elcome	-10.4642
▁waste	-10.4643
▁unit	-10.4647
▁invit	-10.4649
▁sad	-10.4652
▁among	-10.4668
▁divorce	-10.4688
▁Was	-10.4691
▁beat	-10.4698
▁dad	-10.4698
▁strict	-10.4714
▁photos	-10.4717
cer	-10.473
ter	-10.4732
▁rich	-10.4738
▁beside	-10.4753
▁radio	-10.4774
▁channel	-10.4775
don	-10.4777
▁everywhere	-10.4778
▁medium	-10.4785
▁state	-10.4785
▁flat	-10.4785
my	-10.4812
ew	-10.482
side	-10.4827
▁mouth	-10.4829
▁balance	-10.485
5	-10.4851
▁attenti	-10.4866
till	-10.4878
▁finding	-10.4888
ID	-10.4897
▁power	-10.4912
▁active	-10.4916
wanna	-10.493
▁stomach	-10.4933
▁software	-10.4935
▁neighbor	-10.4937
▁himself	-10.4938
▁magic	-10.4948
▁voice	-10.4952
▁keeps	-10.4953
▁wor	-10.4956
production	-10.4957
▁ground	-10.496
▁goal	-10.4965
ions	-10.4966
ious	-10.4985
▁Re	-10.5008
▁stores	-10.502
▁basket	-10.5039
BA	-10.5051
▁paint	-10.5055
▁dogs	-10.5072
▁sugar	-10.5093
of	-10.5093
▁equipment	-10.5096
▁memory	-10.5105
land	-10.5126
▁grade	-10.5127
▁Park	-10.5129
given	-10.5141
▁claim	-10.515
▁loud	-10.5169
▁st	-10.517
▁vari	-10.5187
▁classe	-10.5192
ca	-10.5209
▁super	-10.5219
▁feet	-10.5246
year	-10.5255
▁refund	-10.5258
▁Spanish	-10.5258
▁plastic	-10.5259
▁sauce	-10.5259
▁huge	-10.5262
Would	-10.5265
▁currenc	-10.5267
▁television	-10.5282
▁fixed	-10.5305
▁noise	-10.5317
▁boyfriend	-10.5324
ir	-10.5332
▁opening	-10.5339
▁14	-10.5342
ybe	-10.5342
▁pie	-10.5357
ize	-10.538
lly	-10.5388
▁Australia	-10.5406
▁24	-10.5412
▁Doctor	-10.5425
▁Year	-10.5426
▁import	-10.5427
▁background	-10.5428
▁attractive	-10.5428
ina	-10.5429
cy	-10.5433
▁connection	-10.5434
▁director	-10.5434
▁300	-10.5437
▁Univers	-10.5445
▁wind	-10.5446
▁scared	-10.5447
▁branch	-10.545
▁pm	-10.5452
here	-10.5457
▁review	-10.5477
▁cat	-10.5481
E	-10.5488
▁pre	-10.549
▁plate	-10.5499
▁materials	-10.5545
▁pollut	-10.5564
te	-10.5581
▁depart	-10.5592
▁nearby	-10.5595
▁stamp	-10.5599
▁Whi	-10.5608
self	-10.5618
▁create	-10.564
how	-10.5643
ook	-10.5658
▁16	-10.5658
do	-10.5667
nger	-10.5688
▁map	-10.5692
▁gar	-10.57
▁band	-10.573
▁expense	-10.5731
▁lives	-10.5749
▁suitcase	-10.5767
sleep	-10.5768
▁kick	-10.5771
▁strange	-10.5771
▁stupid	-10.5772
▁impression	-10.5773
P	-10.5775
▁carpet	-10.5784
▁directly	-10.5785
▁Italian	-10.5796
▁chat	-10.5805
▁fund	-10.5809
▁goodbye	-10.5817
ent	-10.5824
▁chip	-10.5832
▁Ann	-10.5835
▁science	-10.5836
▁fell	-10.5867
▁reduce	-10.5878
▁tip	-10.5883
▁mix	-10.5911
▁pro	-10.5935
▁economy	-10.5942
▁square	-10.5948
▁supermarket	-10.5966
▁scar	-10.5968
line	-10.5969
▁machines	-10.5972
▁activity	-10.5976
▁toast	-10.5977
▁burn	-10.5977
for	-10.6001
night	-10.6006
My	-10.6033
lot	-10.6034
▁foot	-10.604
▁track	-10.6051
ther	-10.6051
ities	-10.6052
2	-10.6082
cleaning	-10.6093
ach	-10.6095
▁mess	-10.612
▁minimum	-10.612
▁bargain	-10.612
▁brave	-10.612
▁brown	-10.6121
▁outdoor	-10.6122
▁nowadays	-10.6124
▁orange	-10.6126
▁advantage	-10.613
There	-10.6134
Here	-10.6139
▁Tomorrow	-10.6144
▁Dr	-10.6145
▁13	-10.6153
▁More	-10.6155
7	-10.6166
ish	-10.6172
▁invest	-10.6191
▁ourselves	-10.6198
▁variet	-10.6207
tally	-10.6209
▁note	-10.6234
▁draw	-10.6238
can	-10.6255
▁Listen	-10.6301
▁fan	-10.6306
▁nobody	-10.631
▁satisfie	-10.6312
ries	-10.6313
▁solve	-10.6319
red	-10.6327
▁budget	-10.6327
▁blow	-10.6332
▁inspection	-10.6351
▁event	-10.6355
▁guest	-10.636
ational	-10.636
▁Her	-10.6362
▁profit	-10.6364
▁screen	-10.6373
coming	-10.6377
▁tooth	-10.6382
▁explor	-10.6384
▁Ko	-10.6404
▁load	-10.6419
ories	-10.6432
▁mark	-10.6454
▁owe	-10.6459
▁lift	-10.648
▁uncle	-10.6486
▁regard	-10.6486
▁warrant	-10.6487
▁similar	-10.6487
▁specific	-10.6488
▁exhibition	-10.6491
▁marry	-10.6495
▁presentation	-10.6506
▁lady	-10.6506
ure	-10.6511
▁huh	-10.652
▁cute	-10.6522
▁Ye	-10.6526
▁Canad	-10.6549
nature	-10.6557
▁foods	-10.6569
▁filled	-10.6585
though	-10.659
▁80	-10.6604
▁bear	-10.6604
hand	-10.6612
▁Account	-10.662
▁sky	-10.6623
▁King	-10.6629
▁terribl	-10.6632
▁gra	-10.664
▁wood	-10.6641
that	-10.6653
▁range	-10.6664
▁bowl	-10.6674
▁modern	-10.6675
▁elevator	-10.6676
▁Lucy	-10.6677
▁code	-10.6679
▁invitation	-10.6679
▁emergenc	-10.668
▁disappoint	-10.6684
▁Dan	-10.669
▁land	-10.6691
over	-10.6694
▁150	-10.6702
ears	-10.6703
▁security	-10.6728
▁di	-10.6738
▁boat	-10.6753
▁Time	-10.677
▁spoke	-10.6776
ended	-10.6777
▁shot	-10.68
▁interviewer	-10.6818
▁opportunit	-10.684
▁church	-10.6867
▁Black	-10.6867
▁request	-10.6867
▁sample	-10.6867
▁sudden	-10.6868
▁cities	-10.6873
▁tourist	-10.6884
▁site	-10.6893
▁development	-10.6899
▁Rose	-10.692
▁South	-10.6927
▁casual	-10.6938
▁original	-10.694
▁oversea	-10.6941
nd	-10.695
▁ha	-10.6966
nt	-10.6977
▁Other	-10.6978
▁Mar	-10.6983
▁mid	-10.6988
▁Lee	-10.6997
▁traveler	-10.7008
▁fully	-10.703
▁closed	-10.7037
get	-10.7037
▁Got	-10.7056
▁cinema	-10.7063
▁George	-10.7063
▁Perfect	-10.7063
▁indeed	-10.7065
▁neighborhood	-10.7065
▁relative	-10.7065
▁registr	-10.7086
▁direction	-10.7105
room	-10.7108
▁declare	-10.7134
B	-10.7134
▁V	-10.7136
▁math	-10.7136
ill	-10.7139
▁Check	-10.7142
▁rat	-10.7143
cut	-10.7158
▁electric	-10.7162
▁gold	-10.7185
This	-10.7188
▁social	-10.7215
▁rare	-10.7215
▁journey	-10.7263
▁Michael	-10.7263
▁beaut	-10.7274
▁attitude	-10.7279
▁horribl	-10.7286
▁October	-10.7289
▁extreme	-10.7291
▁ran	-10.7293
▁agent	-10.7294
▁wide	-10.7298
▁dressing	-10.7321
▁employee	-10.7329
▁smok	-10.7342
▁button	-10.7347
▁annual	-10.7348
cient	-10.7366
▁culture	-10.7384
have	-10.7387
▁replace	-10.7394
▁employ	-10.7398
ake	-10.7418
▁loves	-10.7424
▁cross	-10.744
▁flower	-10.7441
▁Thom	-10.7444
K	-10.7459
▁60	-10.746
▁ads	-10.7465
▁roast	-10.7467
▁darling	-10.7468
▁candidate	-10.7468
▁aisle	-10.7476
umn	-10.7487
▁settled	-10.7492
▁calm	-10.7496
▁cloud	-10.7499
▁dial	-10.751
▁Jun	-10.7511
▁17	-10.7514
▁cookie	-10.7524
▁court	-10.7528
etting	-10.7544
retty	-10.7547
▁separate	-10.759
▁relaxing	-10.7638
ical	-10.7642
▁World	-10.7674
▁twelve	-10.7674
▁Daniel	-10.7674
▁strength	-10.7676
▁Alice	-10.7677
▁refrigerator	-10.7677
▁Put	-10.7685
▁earth	-10.7701
▁Lind	-10.7733
▁Johnson	-10.776
▁gate	-10.7761
▁flavor	-10.7774
▁Sh	-10.7783
▁suite	-10.7797
▁Both	-10.78
▁renew	-10.7806
▁joy	-10.7807
board	-10.7813
▁Profess	-10.7815
▁Fin	-10.786
▁hall	-10.7869
▁occasion	-10.7883
▁positive	-10.7888
▁September	-10.7889
▁silk	-10.7889
▁passenger	-10.7889
▁wallet	-10.7889
▁leather	-10.789
▁noon	-10.7892
▁investment	-10.7892
b	-10.7897
▁digit	-10.7897
▁zoo	-10.7898
▁concerned	-10.7905
▁collection	-10.7908
▁assure	-10.7912
▁throat	-10.7913
6	-10.7914
▁seller	-10.7915
▁tag	-10.7916
▁Has	-10.7926
▁Were	-10.7932
▁demand	-10.7941
▁museum	-10.7944
▁build	-10.7946
R	-10.7954
▁depend	-10.7962
▁aware	-10.7963
▁ra	-10.798
▁buck	-10.7996
▁plus	-10.8
▁dead	-10.8008
ied	-10.801
▁notes	-10.8015
ood	-10.8015
▁sand	-10.8022
itting	-10.8027
▁discover	-10.8029
law	-10.8029
▁Un	-10.803
4	-10.8033
▁Moni	-10.8034
▁ages	-10.8037
live	-10.8042
el	-10.8071
▁earn	-10.8076
teria	-10.8078
▁Joe	-10.8096
▁Cindy	-10.8104
▁purpose	-10.8105
▁Excellent	-10.8106
▁literature	-10.8106
▁souvenir	-10.8106
▁sheet	-10.8108
▁novel	-10.8109
▁stopped	-10.8109
▁income	-10.8133
verage	-10.8144
▁known	-10.8159
▁James	-10.8164
▁Engl	-10.8166
bag	-10.8168
▁select	-10.818
▁exams	-10.8204
▁Sand	-10.8208
Let	-10.8213
▁typ	-10.8221
▁Personal	-10.8223
AT	-10.8225
▁storm	-10.8227
▁complicate	-10.8227
▁theater	-10.8246
▁weekends	-10.8257
uite	-10.8258
▁Franc	-10.8259
▁Hope	-10.8262
▁pill	-10.8275
▁locate	-10.8281
come	-10.8288
by	-10.8292
▁choices	-10.8298
right	-10.8302
▁slip	-10.8316
▁Helen	-10.8327
▁Deposit	-10.8327
▁vehicle	-10.8327
▁previous	-10.8327
▁circuit	-10.8328
▁professor	-10.8328
▁conversation	-10.8332
▁papers	-10.8336
▁engineer	-10.8341
long	-10.8348
▁Bri	-10.8353
▁Service	-10.8356
▁bu	-10.8388
▁material	-10.8393
house	-10.8398
▁copie	-10.84
▁kid	-10.8409
▁national	-10.8412
▁patient	-10.8426
x	-10.8429
▁si	-10.8432
She	-10.8448
▁par	-10.8458
▁se	-10.8478
▁J	-10.8501
▁south	-10.8501
▁talent	-10.8502
▁chair	-10.8509
▁etc	-10.8516
▁cheat	-10.8522
▁piano	-10.8553
▁laptop	-10.8553
▁feature	-10.8554
▁display	-10.8554
▁depress	-10.8554
▁Morning	-10.8554
▁seafood	-10.8554
▁roommate	-10.8555
▁flu	-10.8557
▁anniversar	-10.8558
▁chess	-10.8567
▁tasty	-10.8568
▁wrap	-10.8568
▁custom	-10.8573
▁shar	-10.858
▁cry	-10.8582
▁jacket	-10.8583
▁expert	-10.8583
▁mall	-10.8585
▁j	-10.8586
▁cur	-10.8589
tuck	-10.8593
▁focus	-10.8595
▁fool	-10.8596
▁mountains	-10.8598
▁charges	-10.8602
lso	-10.8608
BC	-10.8613
▁protect	-10.8626
▁Usual	-10.8626
▁arrangement	-10.8631
▁lo	-10.8663
▁arrest	-10.8683
▁practical	-10.8684
▁members	-10.8687
epartment	-10.8692
▁highly	-10.8696
▁Pa	-10.8698
▁dai	-10.8727
▁Richard	-10.8746
ke	-10.8763
▁ex	-10.8779
▁prize	-10.8785
▁Robert	-10.8785
▁Taylor	-10.8785
▁Sarah	-10.8786
▁incredibl	-10.8787
▁extension	-10.8787
▁data	-10.8788
▁transportation	-10.8789
▁terrific	-10.8795
▁pot	-10.8803
▁weren	-10.8807
▁statement	-10.881
▁Ben	-10.8815
▁western	-10.8816
▁route	-10.8828
▁Want	-10.8833
▁Work	-10.8838
▁employer	-10.8853
▁Turn	-10.886
ong	-10.8862
like	-10.8872
▁dealing	-10.8879
ur	-10.8884
▁Ju	-10.8899
▁Ta	-10.8902
▁die	-10.8903
gency	-10.8905
1	-10.8944
▁dis	-10.8953
▁120	-10.8955
hiking	-10.8966
▁hell	-10.8973
Could	-10.898
ive	-10.8985
▁chang	-10.8987
▁Am	-10.8998
term	-10.9001
▁painting	-10.9009
▁smooth	-10.9009
▁Europe	-10.9019
▁jeans	-10.9022
▁affect	-10.9023
▁spirit	-10.9023
▁tornado	-10.9024
▁quantit	-10.9024
▁remain	-10.9024
▁Tim	-10.9025
▁Wonderful	-10.9025
▁themselves	-10.9025
▁deadline	-10.9026
▁Show	-10.9027
▁personality	-10.903
▁cousin	-10.9053
▁toward	-10.9062
Y	-10.9066
▁chose	-10.9082
▁Lily	-10.9083
▁complain	-10.911
▁sil	-10.9112
▁bite	-10.912
▁war	-10.9127
▁mode	-10.9137
men	-10.9137
▁lend	-10.9146
▁president	-10.9147
▁alcohol	-10.9152
▁arriv	-10.916
▁river	-10.9167
▁Julia	-10.9169
Why	-10.9192
15	-10.9211
▁measure	-10.922
while	-10.9225
▁Aren	-10.9234
ts	-10.9254
▁explore	-10.9259
▁fries	-10.926
▁assist	-10.9266
▁yellow	-10.9267
▁download	-10.9269
▁qualification	-10.927
▁toilet	-10.9271
▁Five	-10.9271
▁Definitely	-10.9274
▁factor	-10.9275
▁accountant	-10.9276
pe	-10.9276
▁dining	-10.9278
▁ideal	-10.9287
ha	-10.929
▁creative	-10.9292
▁Sally	-10.9295
▁finger	-10.9297
▁requirements	-10.9301
▁Probably	-10.931
ud	-10.931
efore	-10.933
▁Frank	-10.9333
▁meetings	-10.9337
▁master	-10.9341
hip	-10.9344
back	-10.9346
com	-10.936
sh	-10.9371
seeing	-10.9373
mobile	-10.9378
▁impressi	-10.9384
▁bo	-10.9384
njoy	-10.9387
▁officer	-10.9388
▁Kat	-10.9413
▁yours	-10.9417
▁los	-10.9418
▁ship	-10.9428
▁Hu	-10.9429
▁Roa	-10.9497
ta	-10.9504
▁foreigner	-10.9516
▁sto	-10.9518
▁Washington	-10.9519
▁senior	-10.9519
▁proposal	-10.9519
▁transaction	-10.9519
offer	-10.9519
▁thin	-10.9521
▁organization	-10.9522
▁frequent	-10.9531
▁rude	-10.9533
ties	-10.9543
▁slowly	-10.9544
▁above	-10.9554
▁consideration	-10.9555
▁soda	-10.9559
▁legal	-10.9562
▁challeng	-10.9564
▁blame	-10.9565
size	-10.9575
▁singer	-10.9588
▁Walk	-10.9602
▁nois	-10.9603
▁excite	-10.9621
▁Inter	-10.963
▁basi	-10.9641
ine	-10.966
nfortunate	-10.9673
east	-10.9679
▁bye	-10.9699
▁rise	-10.9711
▁Bo	-10.9713
▁Four	-10.9714
▁north	-10.9716
▁supplie	-10.9717
▁Er	-10.9723
▁units	-10.9732
▁lease	-10.9746
book	-10.9756
▁brief	-10.9772
▁perfume	-10.9773
▁resource	-10.9774
▁champagne	-10.9774
▁typical	-10.9775
▁punch	-10.9776
▁Something	-10.9777
▁insist	-10.9777
▁ingredients	-10.9778
▁physical	-10.9779
▁grab	-10.9781
▁stolen	-10.9781
▁fed	-10.9782
▁supply	-10.9784
▁automatic	-10.9784
▁prove	-10.9791
▁topic	-10.9794
low	-10.9803
▁risk	-10.9804
When	-10.982
▁member	-10.9835
▁Le	-10.984
ating	-10.9842
ory	-10.9847
▁net	-10.9851
ver	-10.9857
unch	-10.9857
▁wi	-10.986
nel	-10.9866
▁charm	-10.9866
resident	-10.9866
▁surpris	-10.9875
▁equal	-10.988
▁mistakes	-10.988
▁Pe	-10.9886
▁salt	-10.9892
▁Jone	-10.9895
▁players	-10.9904
▁shy	-10.9912
▁Too	-10.9912
usiness	-10.9913
U	-10.9925
▁scheduled	-10.9925
▁achieve	-10.9932
▁Speak	-10.9938
▁access	-10.994
▁distance	-10.9944
▁Y	-10.9962
▁Da	-10.9978
own	-10.9998
der	-11.0001
▁easie	-11.0011
ley	-11.002
▁lazy	-11.0035
▁Jake	-11.0035
O	-11.0035
▁General	-11.0037
▁climate	-11.0037
▁reception	-11.0037
▁unusual	-11.0037
▁Chen	-11.0038
▁network	-11.0038
▁competition	-11.0038
▁maintain	-11.0038
▁appetizer	-11.0039
ork	-11.0043
▁annoy	-11.0045
▁independent	-11.0048
ordina	-11.0052
▁organiz	-11.0055
niversity	-11.0056
▁Watch	-11.0057
▁official	-11.0064
▁shelf	-11.0074
bedroom	-11.0076
dom	-11.0083
▁wild	-11.0096
▁h	-11.0104
we	-11.0105
▁tend	-11.011
▁technolog	-11.0112
▁Mum	-11.0119
▁weak	-11.0132
▁Wall	-11.0133
▁Ho	-11.0133
▁meaning	-11.0134
▁waiter	-11.0152
▁lie	-11.0153
▁CD	-11.0157
▁pen	-11.018
▁cameras	-11.0181
▁trie	-11.0183
▁multi	-11.0188
▁settle	-11.0205
▁da	-11.0206
free	-11.0207
col	-11.022
▁lake	-11.0235
▁permit	-11.0237
▁Wil	-11.0256
▁kilo	-11.0305
▁puzzle	-11.0306
▁campaign	-11.0307
▁electronic	-11.0308
▁description	-11.0308
▁horse	-11.0308
▁retirement	-11.0309
▁blast	-11.031
▁technical	-11.0311
▁potatoes	-11.0312
estival	-11.0313
▁Loan	-11.0313
▁establish	-11.0317
▁towel	-11.032
▁knock	-11.0325
▁regularly	-11.0345
▁areas	-11.0346
▁loose	-11.0358
▁Ex	-11.0363
dditional	-11.0375
▁Second	-11.0376
▁shipp	-11.0385
▁chest	-11.0398
▁complaint	-11.042
▁rough	-11.0422
what	-11.0424
▁switch	-11.044
off	-11.0464
▁tri	-11.0471
Will	-11.0502
▁Play	-11.0522
▁kn	-11.0529
ist	-11.0553
▁encourage	-11.0562
▁frank	-11.0582
▁cough	-11.0583
▁drunk	-11.0583
▁entire	-11.0583
▁blouse	-11.0583
▁necklace	-11.0584
▁procedure	-11.0584
▁volunteer	-11.0585
▁split	-11.0585
▁supervisor	-11.0585
▁cheerful	-11.0587
▁Over	-11.0587
▁selection	-11.0589
▁joking	-11.0595
▁appear	-11.0596
▁21	-11.0598
▁warning	-11.0604
▁bid	-11.061
▁virus	-11.0615
▁severa	-11.0617
▁mango	-11.0618
▁award	-11.063
▁stage	-11.0634
▁Sue	-11.0654
▁title	-11.0662
F	-11.0663
Are	-11.0703
▁loss	-11.0706
▁text	-11.0708
▁host	-11.073
▁cooperati	-11.074
▁nurse	-11.0755
▁sides	-11.0805
▁Charl	-11.0827
▁spell	-11.0838
▁dare	-11.0852
▁recent	-11.0856
▁shame	-11.0857
▁survey	-11.0863
W	-11.0864
▁True	-11.0866
▁August	-11.0868
▁repeat	-11.0869
▁Spring	-11.087
▁Airline	-11.087
▁Master	-11.0871
ache	-11.0871
ware	-11.0872
▁unfortunate	-11.0872
oom	-11.0873
▁handsome	-11.0873
▁strawberr	-11.0875
▁sixty	-11.0877
▁bicycle	-11.088
▁lock	-11.0894
▁Anna	-11.0895
▁pepper	-11.0905
▁confident	-11.0905
▁individual	-11.0906
zy	-11.0911
▁supplier	-11.0913
ster	-11.0915
Is	-11.0922
▁nail	-11.0935
▁planet	-11.0952
▁serv	-11.096
▁degrees	-11.0966
▁survive	-11.0973
▁belt	-11.0977
▁Glad	-11.0979
▁anti	-11.0979
▁kne	-11.0984
▁VI	-11.0988
▁Love	-11.0992
▁retire	-11.0997
▁compliment	-11.1001
▁PC	-11.1007
▁House	-11.1014
▁Grand	-11.1017
▁Man	-11.1018
000	-11.1041
▁li	-11.1045
▁qualifie	-11.1053
Now	-11.1054
ian	-11.1061
▁leak	-11.1085
elieve	-11.1098
▁suffer	-11.1106
▁California	-11.1106
▁compare	-11.1126
▁Fair	-11.1126
hat	-11.1136
id	-11.1138
▁maxim	-11.1157
▁empty	-11.1161
▁Lisa	-11.1162
▁umbrella	-11.1163
▁method	-11.1163
▁obvious	-11.1164
▁tomato	-11.1164
▁regulation	-11.1165
▁appliance	-11.1165
▁property	-11.1167
▁festival	-11.1169
▁discussion	-11.1175
▁draft	-11.1181
▁Jas	-11.1184
cause	-11.1185
▁intern	-11.1196
▁valuable	-11.12
▁pocket	-11.1201
▁folk	-11.1211
▁coin	-11.1217
il	-11.1222
▁Hum	-11.1231
▁transferr	-11.124
▁workshop	-11.1242
un	-11.1247
▁source	-11.1248
▁intend	-11.1258
▁PI	-11.1258
▁packed	-11.1287
▁effort	-11.1303
▁cl	-11.1312
▁frie	-11.1315
▁finance	-11.1316
▁scale	-11.1328
▁fift	-11.1329
▁workers	-11.1333
▁port	-11.134
▁travell	-11.134
▁economic	-11.135
▁scene	-11.135
▁toys	-11.1353
cycle	-11.1354
▁propose	-11.1355
▁beg	-11.1363
▁du	-11.1365
▁term	-11.1367
▁drugs	-11.1377
▁steam	-11.1389
▁creat	-11.1403
▁horr	-11.1408
down	-11.1411
ight	-11.1411
▁warming	-11.1437
arly	-11.1439
▁centr	-11.145
▁cats	-11.145
▁decid	-11.145
▁Avenue	-11.1465
▁cocktail	-11.1466
▁colour	-11.1466
▁universities	-11.1467
▁routine	-11.1467
▁location	-11.1471
▁Los	-11.148
hood	-11.1482
▁recipe	-11.1499
▁Haven	-11.1522
▁fitting	-11.1523
▁apart	-11.1537
▁communication	-11.1542
▁sharp	-11.1546
▁self	-11.1546
possible	-11.1548
Well	-11.1565
▁tape	-11.1568
▁pal	-11.1571
corn	-11.1574
▁grand	-11.1577
▁communit	-11.1588
▁race	-11.1588
▁gain	-11.159
Oh	-11.1602
▁grown	-11.1609
your	-11.1611
▁lab	-11.1613
cious	-11.1614
▁starv	-11.1623
▁Wo	-11.164
ear	-11.1645
▁farm	-11.1651
▁addition	-11.1679
arm	-11.1708
▁following	-11.1719
▁dropp	-11.1723
▁delay	-11.1753
▁concern	-11.1756
▁hous	-11.1757
his	-11.1757
▁engine	-11.1757
▁weigh	-11.1761
▁tradition	-11.1764
urry	-11.177
▁Henry	-11.1776
ught	-11.1776
▁eleven	-11.1777
▁exhaust	-11.1777
▁global	-11.1778
▁catalogue	-11.1779
▁crime	-11.178
▁corporation	-11.178
▁scenery	-11.178
▁remove	-11.1781
▁memori	-11.1781
▁invoice	-11.1781
▁pink	-11.1782
▁progress	-11.1785
▁ang	-11.1797
ink	-11.1798
---	-11.1801
▁altogether	-11.1805
Please	-11.1808
▁caus	-11.1809
▁cheer	-11.1812
▁install	-11.1816
▁vegetarian	-11.1819
▁effective	-11.1819
▁grass	-11.182
▁stone	-11.1825
▁fond	-11.1837
▁operation	-11.1841
▁jogg	-11.1854
▁confidence	-11.186
▁furnish	-11.1875
▁owners	-11.1877
ton	-11.1882
▁height	-11.1885
▁photo	-11.1886
▁prevent	-11.1886
round	-11.1892
some	-11.1897
▁opera	-11.1902
▁vot	-11.1926
▁offices	-11.1934
▁result	-11.1937
▁com	-11.1956
raining	-11.1972
▁Du	-11.1975
▁shoulder	-11.1977
▁Call	-11.2001
SA	-11.201
▁golf	-11.2019
25	-11.2037
▁Western	-11.2042
▁Card	-11.2059
▁Mm	-11.2071
▁De	-11.2078
▁operate	-11.2078
▁neck	-11.2079
▁sole	-11.2088
▁ladi	-11.209
▁attract	-11.2092
▁adjust	-11.2099
▁ceremon	-11.21
▁approach	-11.21
▁romantic	-11.21
▁potential	-11.2101
▁costume	-11.2101
▁waitress	-11.2101
▁refresh	-11.2103
▁coke	-11.2107
▁Long	-11.2107
eat	-11.2117
▁battery	-11.2118
▁image	-11.2118
▁expand	-11.2123
▁vacanc	-11.2123
▁Certificate	-11.213
beat	-11.2136
▁buddy	-11.214
▁Chicago	-11.2141
▁Harvard	-11.2141
▁William	-11.2141
▁election	-11.2148
▁Fred	-11.2151
▁Read	-11.2156
take	-11.2158
▁surf	-11.2163
▁chops	-11.2179
▁forgive	-11.2184
▁attach	-11.2201
▁confus	-11.2213
▁slight	-11.2214
▁hike	-11.2233
▁West	-11.224
but	-11.224
--	-11.2244
▁web	-11.2248
▁quote	-11.2269
▁Janet	-11.2277
more	-11.2308
▁admit	-11.2325
▁memo	-11.2334
50	-11.2352
▁shoe	-11.2364
▁hadn	-11.2365
▁fil	-11.2384
▁famili	-11.2385
▁feed	-11.2403
▁recover	-11.2405
hour	-11.2408
▁plain	-11.2425
▁item	-11.2425
500	-11.2427
▁sweat	-11.2427
▁contest	-11.2427
▁junk	-11.2431
▁Alex	-11.2431
▁pump	-11.2431
▁speech	-11.2432
▁Barbie	-11.2432
▁Dick	-11.2432
▁silver	-11.2432
▁lawyer	-11.2432
▁parcel	-11.2432
▁Open	-11.2432
▁facial	-11.2433
▁Current	-11.2433
▁evidence	-11.2433
▁transport	-11.2433
▁brick	-11.2433
▁forecast	-11.2434
▁reward	-11.2434
▁classmate	-11.2434
▁opposite	-11.2434
ial	-11.2435
▁ends	-11.2436
▁Mountain	-11.2436
ap	-11.2441
▁publish	-11.2443
▁utilit	-11.2458
▁Gues	-11.2459
▁promoted	-11.2465
▁possibilit	-11.2467
▁tongue	-11.2474
▁negotiate	-11.2474
▁grocer	-11.2474
▁shift	-11.2474
▁harm	-11.2485
▁trainer	-11.2505
wood	-11.2507
▁interrupt	-11.2515
▁Cheer	-11.2525
▁congratulat	-11.2528
▁recommendation	-11.254
▁70	-11.254
redit	-11.2567
eful	-11.2575
▁cheque	-11.2587
tten	-11.2593
ways	-11.2596
▁mini	-11.2611
▁photograph	-11.2616
▁Bring	-11.2617
ol	-11.2647
Yes	-11.2648
▁AM	-11.2648
▁bedrooms	-11.2662
▁graduat	-11.2679
▁Mac	-11.2684
▁chatt	-11.2685
▁shout	-11.2686
▁polic	-11.2688
▁East	-11.2692
▁de	-11.2701
▁Ten	-11.271
ut	-11.2719
stic	-11.2727
ston	-11.2737
now	-11.2755
ra	-11.2756
▁hundreds	-11.2758
▁iron	-11.2762
▁Help	-11.2775
▁lemon	-11.2776
▁vacuum	-11.2776
▁destroy	-11.2777
▁dentist	-11.2777
▁village	-11.2777
▁romance	-11.2777
▁neighbour	-11.2777
▁engaged	-11.2778
▁lipstick	-11.2778
▁favourite	-11.2778
▁enterprise	-11.2778
▁grandmother	-11.2778
▁membership	-11.2779
▁purse	-11.2781
▁downstairs	-11.2781
▁Betty	-11.2782
▁peaceful	-11.2783
▁printer	-11.2804
▁Rome	-11.2805
▁manner	-11.2807
▁leader	-11.2814
▁steal	-11.2816
▁lonel	-11.282
▁attendant	-11.2826
▁kilometer	-11.2827
▁Manager	-11.2831
▁visitors	-11.2845
▁Form	-11.2847
four	-11.2855
▁birth	-11.2861
▁burger	-11.2867
mber	-11.2868
▁soc	-11.2891
▁Mo	-11.2914
▁designer	-11.2914
▁admire	-11.2921
L	-11.2928
head	-11.2952
▁Roman	-11.2959
duction	-11.2973
▁Hopeful	-11.2975
nother	-11.2975
▁chill	-11.2984
▁chemist	-11.2991
other	-11.2993
eral	-11.3014
▁listed	-11.3018
▁checks	-11.3053
Have	-11.3064
▁addict	-11.3086
▁plumb	-11.3087
▁cab	-11.3096
CC	-11.3103
▁attack	-11.3106
came	-11.3119
▁pipe	-11.3131
▁Kevin	-11.3132
▁Karen	-11.3133
▁promote	-11.3134
▁superior	-11.3134
▁frustrat	-11.3134
▁probation	-11.3134
▁blanket	-11.3134
▁gorgeous	-11.3134
▁Everybody	-11.3135
▁Six	-11.3136
▁chef	-11.3137
▁advise	-11.3144
▁thoughtful	-11.3148
▁heel	-11.3153
▁carton	-11.3163
▁yo	-11.317
▁satisfaction	-11.3179
▁disco	-11.3181
▁judge	-11.3195
▁Gate	-11.3198
▁goodness	-11.3201
▁treatment	-11.3227
▁examination	-11.3227
▁sp	-11.3227
▁jewel	-11.3234
rry	-11.3242
▁decorat	-11.3246
▁mum	-11.325
▁thick	-11.3253
ping	-11.3257
▁tune	-11.3258
▁br	-11.3259
lic	-11.3263
Where	-11.328
▁Ti	-11.3296
▁bake	-11.3301
shine	-11.3302
▁aut	-11.3303
ling	-11.3306
▁flexibl	-11.3314
▁stretch	-11.3315
▁San	-11.3317
▁labor	-11.333
▁programme	-11.3331
ancy	-11.3337
▁organize	-11.3339
▁Web	-11.3349
pack	-11.3362
▁creativ	-11.3363
▁paintings	-11.3386
▁shake	-11.3398
mission	-11.3399
special	-11.3408
etic	-11.3413
▁combin	-11.3429
comfortable	-11.3431
▁regret	-11.3465
▁minor	-11.3465
▁refuse	-11.3468
▁sum	-11.3469
▁fl	-11.347
▁Squa	-11.3471
▁breathe	-11.3474
▁heading	-11.3475
done	-11.3476
▁Ted	-11.3482
ease	-11.35
rd	-11.3502
▁Oscar	-11.3502
▁Vince	-11.3502
▁mirror	-11.3503
▁pencil	-11.3503
▁illegal	-11.3503
▁pattern	-11.3503
▁postcard	-11.3504
▁instrument	-11.3504
▁cockroach	-11.3504
▁influence	-11.3505
▁household	-11.3505
▁Corporation	-11.3505
▁representative	-11.3505
▁Jimmy	-11.3506
▁audience	-11.3507
▁bride	-11.3508
▁Angeles	-11.3509
▁scholarship	-11.351
▁bell	-11.3512
▁region	-11.3513
▁qualit	-11.3513
▁upstairs	-11.3518
ying	-11.3522
▁wool	-11.3526
genda	-11.3528
▁embarrass	-11.3528
V	-11.3531
▁laid	-11.3535
▁spa	-11.3538
▁vase	-11.3541
▁generation	-11.3558
▁passion	-11.3558
▁theatre	-11.3561
▁proof	-11.3562
ning	-11.3575
▁relations	-11.3577
▁Super	-11.358
▁frame	-11.3581
▁Though	-11.3588
gain	-11.3595
▁butter	-11.3595
▁45	-11.3596
▁perform	-11.3596
stairs	-11.3603
▁Sit	-11.3611
ility	-11.3617
▁role	-11.3618
IF	-11.3622
▁rains	-11.3625
▁fear	-11.3632
▁god	-11.364
▁800	-11.3649
▁Sun	-11.3665
▁projects	-11.3678
▁75	-11.3684
▁Lake	-11.3684
jam	-11.3685
▁pl	-11.3689
happy	-11.3696
ped	-11.3698
▁Eve	-11.37
▁partner	-11.3725
▁tablet	-11.373
▁wow	-11.3741
▁meant	-11.3746
rious	-11.3758
▁seek	-11.3762
▁400	-11.3767
▁bird	-11.3772
ence	-11.3774
hy	-11.3781
▁Centr	-11.3786
▁prepar	-11.3799
ga	-11.38
▁stands	-11.3802
▁thes	-11.3809
▁trim	-11.3821
▁250	-11.3823
handed	-11.386
▁Dam	-11.3863
20	-11.3878
▁dust	-11.3879
▁zero	-11.3885
▁cereal	-11.3887
▁decent	-11.3887
▁Hilton	-11.3887
▁shampoo	-11.3887
▁jealous	-11.3887
▁dates	-11.3888
▁affair	-11.3888
▁coupon	-11.3888
▁appetite	-11.3888
▁prescribe	-11.3888
▁railway	-11.3888
▁Restaurant	-11.3889
▁shrimp	-11.3889
▁inconvenience	-11.3891
▁Indian	-11.3892
▁capital	-11.3893
▁flash	-11.3894
▁achievement	-11.3897
▁stir	-11.3898
▁receiv	-11.3899
▁initial	-11.39
▁announce	-11.39
▁withdrawal	-11.3902
▁Wu	-11.3908
▁poll	-11.3909
ulous	-11.391
▁lung	-11.3911
▁Star	-11.3912
▁Baker	-11.3913
▁brake	-11.3916
▁Carl	-11.3923
ile	-11.3925
▁Trust	-11.3925
▁strateg	-11.3925
▁ocean	-11.3926
▁landscape	-11.3932
▁length	-11.3934
▁structure	-11.3936
▁Martin	-11.3936
▁fortune	-11.3938
▁stranger	-11.3946
month	-11.3947
▁probab	-11.3948
no	-11.3958
▁Boy	-11.396
end	-11.3969
▁Fill	-11.3969
▁wave	-11.3974
▁dirt	-11.3974
ay	-11.3978
sphere	-11.3982
▁exercis	-11.3985
▁Market	-11.3997
mind	-11.4
▁lobb	-11.4
▁Luck	-11.4012
▁Amy	-11.4012
iness	-11.4015
▁Cent	-11.4027
▁crash	-11.4035
ma	-11.4048
▁relate	-11.405
▁convince	-11.4052
▁drawing	-11.4052
▁woke	-11.4053
▁worker	-11.4055
▁crafts	-11.4059
▁lessons	-11.4063
ember	-11.4063
▁shut	-11.4072
▁aunt	-11.4083
with	-11.4089
class	-11.4097
les	-11.4101
cca	-11.4105
uh	-11.4106
ad	-11.4109
▁crack	-11.4113
▁gun	-11.4115
▁nation	-11.4128
▁birds	-11.4129
▁Game	-11.4138
op	-11.4178
this	-11.4189
▁brain	-11.4191
excited	-11.42
let	-11.4205
ual	-11.4219
▁Drive	-11.4219
▁consult	-11.424
▁coast	-11.4247
Don	-11.4253
▁weird	-11.4263
▁Net	-11.428
▁Mexic	-11.428
▁ju	-11.4282
▁PL	-11.4284
Track	-11.4286
▁cuisine	-11.4287
▁massage	-11.4287
▁bachelor	-11.4287
▁brochure	-11.4287
▁Birthday	-11.4287
▁hamburger	-11.4288
▁appeal	-11.4288
▁competitive	-11.4288
▁heaven	-11.4288
▁queen	-11.4289
▁afterward	-11.4289
▁Nancy	-11.429
▁elegant	-11.4291
▁outfit	-11.4291
▁Julie	-11.4291
▁alternative	-11.4291
▁principle	-11.4291
▁preparation	-11.4292
▁assignment	-11.4293
▁European	-11.4295
▁label	-11.4295
▁barbecue	-11.4296
smoker	-11.4298
Just	-11.4309
ings	-11.4311
▁exit	-11.4312
▁cultur	-11.4314
uck	-11.4315
▁imagin	-11.4342
▁fry	-11.4346
▁Gree	-11.4351
▁grape	-11.4354
et	-11.4359
▁task	-11.436
▁expectation	-11.4361
kyo	-11.4362
▁sex	-11.4372
▁extend	-11.4373
▁central	-11.4374
▁fanc	-11.4379
▁Wood	-11.4399
▁gum	-11.4408
mo	-11.4412
▁function	-11.4417
▁Plu	-11.4434
▁bridge	-11.444
Good	-11.4444
▁Ca	-11.4444
ches	-11.4455
▁dancer	-11.4456
▁hel	-11.4472
▁bas	-11.4482
▁intention	-11.4489
ming	-11.449
well	-11.449
▁wheel	-11.45
▁boil	-11.4502
▁facilit	-11.4506
▁artist	-11.451
working	-11.4517
▁hero	-11.4524
▁hook	-11.4525
eaten	-11.4536
▁gambl	-11.455
workers	-11.4551
▁ab	-11.4557
▁china	-11.4578
!	-11.4581
▁cap	-11.4591
fore	-11.4593
▁tone	-11.4595
uilding	-11.4606
▁su	-11.4611
dies	-11.4631
fashion	-11.4634
ham	-11.4636
▁Yang	-11.4636
▁hide	-11.4644
▁tru	-11.4649
field	-11.4666
▁edge	-11.4669
▁force	-11.4676
▁tail	-11.4688
nch	-11.4693
▁pr	-11.4697
▁disagree	-11.4698
▁Club	-11.4701
▁Think	-11.4701
▁blind	-11.4702
▁muscle	-11.4702
▁target	-11.4702
▁unique	-11.4703
▁complex	-11.4703
▁insect	-11.4703
▁fiction	-11.4703
▁platform	-11.4704
▁realtor	-11.4704
▁Valentine	-11.4704
▁unbelievabl	-11.4705
▁dislike	-11.4705
▁destination	-11.4705
▁cabinet	-11.4706
▁Yup	-11.4707
▁assign	-11.4707
▁noodles	-11.4708
▁Elvin	-11.4708
▁overweight	-11.4708
▁allowance	-11.4709
▁Apple	-11.471
▁Francis	-11.471
▁antique	-11.4712
▁tailor	-11.4713
▁Several	-11.4714
ds	-11.4721
ans	-11.4722
▁writer	-11.4727
▁Merr	-11.4729
▁spread	-11.4731
▁efficient	-11.4737
ving	-11.4739
▁response	-11.4739
▁expression	-11.4739
▁bean	-11.4741
▁delight	-11.4754
▁instructions	-11.4758
▁Coo	-11.476
boy	-11.4761
▁duck	-11.4767
▁buyer	-11.4778
▁reference	-11.4784
moon	-11.4784
▁twin	-11.4786
▁lack	-11.4804
▁shadow	-11.481
oing	-11.4811
▁forest	-11.4819
▁Anne	-11.4821
▁setting	-11.4822
▁rug	-11.4824
▁drug	-11.4824
ternal	-11.4825
▁clubs	-11.4863
▁happi	-11.4864
▁Clai	-11.4883
▁35	-11.4899
▁entr	-11.4907
erson	-11.4909
▁im	-11.4918
▁efforts	-11.4931
▁bug	-11.4938
Smith	-11.4962
▁refill	-11.4971
▁vitamin	-11.4974
▁Na	-11.4988
▁slim	-11.499
▁suppos	-11.5004
▁truck	-11.5013
look	-11.5021
eeth	-11.5025
▁absent	-11.5036
▁Travel	-11.505
▁skill	-11.505
shooting	-11.5053
either	-11.5073
▁Won	-11.5074
▁slippe	-11.5077
▁lay	-11.5086
.50	-11.5088
▁contain	-11.5092
▁committe	-11.5094
▁Rick	-11.5107
▁religio	-11.5112
▁Africa	-11.5115
▁env	-11.5115
▁Steve	-11.512
▁blog	-11.5126
▁tu	-11.5128
▁Sara	-11.5133
▁cotton	-11.5137
▁Sydney	-11.5137
▁gossip	-11.5137
▁Indeed	-11.5137
▁stereo	-11.5137
▁suspect	-11.5137
▁Foreign	-11.5137
▁quarrel	-11.5137
▁Window	-11.5138
▁behavior	-11.5138
▁waist	-11.5139
▁detective	-11.5139
▁frighten	-11.5139
▁Neither	-11.5139
▁identification	-11.5139
eight	-11.5139
▁sofa	-11.5142
▁jet	-11.5145
gh	-11.5146
▁reality	-11.5149
▁coach	-11.515
▁qualify	-11.515
▁medication	-11.5151
▁portion	-11.5153
▁political	-11.5153
▁flood	-11.5154
▁states	-11.5161
▁Food	-11.5162
11	-11.5168
▁satisfactor	-11.5169
▁humor	-11.5171
▁anybody	-11.5171
▁delayed	-11.5171
▁Maria	-11.5172
▁Nobody	-11.5177
shirt	-11.5179
▁peace	-11.5184
ither	-11.5185
▁fascinat	-11.5191
▁mild	-11.5192
▁alumin	-11.5196
▁fluent	-11.5199
▁cler	-11.5206
▁porter	-11.521
▁sta	-11.5219
▁fu	-11.5223
▁Umm	-11.523
▁strike	-11.5242
▁wipe	-11.5253
▁speakers	-11.5253
▁circle	-11.5254
▁conduct	-11.5265
▁Hah	-11.5271
ition	-11.5272
da	-11.5319
▁tire	-11.5347
▁zone	-11.5359
▁handl	-11.5368
In	-11.5385
▁Men	-11.5393
ex	-11.5399
▁compensat	-11.5399
▁log	-11.5407
▁Cit	-11.5415
▁contra	-11.5464
▁28	-11.5499
▁fi	-11.5504
known	-11.5516
dical	-11.5524
▁Mia	-11.5534
▁commercial	-11.5544
▁path	-11.5553
▁roof	-11.5557
▁sore	-11.5561
▁exhibit	-11.5587
▁rides	-11.5587
▁waltz	-11.559
▁balcon	-11.559
▁Follow	-11.5591
▁School	-11.5591
▁succeed	-11.5591
▁rainbow	-11.5591
▁surface	-11.5591
rash	-11.5591
▁calendar	-11.5591
▁faith	-11.5592
▁technique	-11.5592
▁dizzy	-11.5592
▁Single	-11.5592
▁racket	-11.5592
lept	-11.5592
▁essential	-11.5592
▁lamb	-11.5592
▁ridiculous	-11.5592
▁kiss	-11.5592
▁approval	-11.5593
▁bookstore	-11.5594
▁mortgage	-11.5594
▁spoil	-11.5594
▁textbook	-11.5595
▁pant	-11.5596
▁approve	-11.5597
▁rep	-11.5599
ang	-11.56
▁graduati	-11.5601
▁symp	-11.5602
▁reliable	-11.5602
▁estimate	-11.5607
▁ruin	-11.5609
▁relieve	-11.5611
▁indoor	-11.5611
▁miser	-11.5613
▁carrots	-11.5634
▁convenience	-11.5634
▁recognize	-11.5637
▁conclude	-11.5638
▁plug	-11.5644
▁shoot	-11.5646
▁belong	-11.5655
mon	-11.566
▁Air	-11.5663
ise	-11.5663
▁compete	-11.5681
▁Mont	-11.5683
▁Andy	-11.5687
hilar	-11.5691
▁shade	-11.57
▁vacan	-11.5703
▁compan	-11.5711
jing	-11.5713
▁nerve	-11.572
laws	-11.5723
▁concentrate	-11.5724
▁Sant	-11.5725
corporate	-11.5732
▁hole	-11.5743
sir	-11.5751
▁Cash	-11.5759
▁patien	-11.5759
▁considerat	-11.5778
▁favorabl	-11.5782
terday	-11.5792
▁possibl	-11.5793
▁broad	-11.5807
45	-11.5811
▁argue	-11.5811
▁trad	-11.5813
ery	-11.5815
▁Tang	-11.5818
▁Cal	-11.5828
▁ref	-11.5842
▁violen	-11.5843
▁beds	-11.5845
tory	-11.5854
▁rear	-11.5891
fair	-11.5901
▁Friends	-11.5906
▁En	-11.591
▁dolls	-11.5911
▁none	-11.5915
mpact	-11.5917
ated	-11.5939
▁tender	-11.5947
▁Taxi	-11.5949
▁relat	-11.5949
▁Unti	-11.5961
40	-11.5965
▁directions	-11.5972
mill	-11.5982
▁Hol	-11.5992
ant	-11.5992
offee	-11.5993
▁bone	-11.6003
na	-11.601
▁thirst	-11.6021
lo	-11.6021
just	-11.6022
▁hill	-11.6024
▁mustn	-11.6025
▁moon	-11.603
▁nons	-11.6034
stand	-11.6046
▁info	-11.6046
▁fab	-11.6051
▁deb	-11.6058
▁fa	-11.6059
▁actual	-11.6061
▁poster	-11.6064
▁niece	-11.6065
▁crisp	-11.6065
▁chew	-11.6066
▁Taipei	-11.6066
▁Women	-11.6066
▁society	-11.6067
▁diamond	-11.6067
▁Student	-11.6067
▁constant	-11.6067
▁thorough	-11.6067
▁instance	-11.6067
▁curtain	-11.6067
▁baseball	-11.6068
▁dumpling	-11.6068
▁solid	-11.6069
▁marvelous	-11.6069
▁dump	-11.6069
▁flatter	-11.607
▁Janu	-11.6071
▁grill	-11.6073
▁cooperate	-11.6077
▁negative	-11.6078
▁airline	-11.6079
▁Holly	-11.608
▁decorate	-11.6081
▁improvement	-11.6083
▁overnight	-11.6088
▁historical	-11.6093
▁mask	-11.6096
▁communicate	-11.6097
▁lamp	-11.6098
▁metal	-11.6105
▁charit	-11.6108
▁rental	-11.6111
rk	-11.6114
▁Basic	-11.6118
▁trend	-11.6126
▁ensure	-11.6127
gas	-11.6132
▁envelope	-11.6145
▁contribute	-11.6147
▁highway	-11.6149
▁fle	-11.6152
life	-11.6164
▁22	-11.6171
▁hesitat	-11.6174
▁crush	-11.6181
▁athlete	-11.6208
▁link	-11.6225
▁bi	-11.6229
▁shock	-11.6234
▁brush	-11.6244
▁update	-11.6247
▁detailed	-11.625
per	-11.6263
▁dorm	-11.6266
ain	-11.6266
ier	-11.6273
▁mis	-11.6276
▁clos	-11.6282
▁nap	-11.6284
want	-11.6287
▁27	-11.6288
▁Fortun	-11.6302
ig	-11.6308
▁Mon	-11.6327
▁Doesn	-11.6344
oo	-11.6346
mp	-11.6346
where	-11.636
▁pour	-11.6365
▁sink	-11.6368
▁celebrat	-11.6386
▁Dece	-11.6412
▁wa	-11.6414
▁trans	-11.6436
▁cleaner	-11.6441
10	-11.6448
▁lesson	-11.6451
iving	-11.6452
▁Si	-11.646
▁cord	-11.647
illian	-11.6485
art	-11.649
▁analys	-11.6492
abilities	-11.6498
▁ill	-11.6502
think	-11.6514
ollege	-11.6516
60	-11.6517
titude	-11.653
▁batter	-11.6541
▁cent	-11.6549
▁Emo	-11.6551
▁tho	-11.6551
ail	-11.6554
ealand	-11.6562
▁bunge	-11.6562
▁guitar	-11.6565
▁Disney	-11.6565
▁liquor	-11.6565
▁landlord	-11.6566
▁cartridge	-11.6567
▁permanent	-11.6567
▁signature	-11.6567
▁resolution	-11.6567
▁grandfather	-11.6567
▁subscription	-11.6567
▁freedom	-11.6568
mily	-11.6568
▁fuel	-11.657
▁pin	-11.657
▁aspect	-11.6571
▁celebration	-11.6572
▁Mexican	-11.6573
eath	-11.6574
▁paycheck	-11.6575
▁aspirin	-11.6583
▁Lo	-11.6586
▁consumer	-11.6593
▁religion	-11.6596
▁solution	-11.6602
▁oven	-11.6603
▁billion	-11.6605
read	-11.6607
ging	-11.6609
ey	-11.6614
▁Hall	-11.6626
▁gap	-11.6629
▁North	-11.6633
▁elect	-11.6636
▁fri	-11.6636
▁St	-11.6636
▁skat	-11.6647
▁mechanic	-11.6653
▁Brit	-11.6662
▁0	-11.6668
put	-11.6671
▁trash	-11.6678
▁content	-11.6678
rage	-11.6682
▁lecture	-11.6692
▁Yi	-11.6697
▁polish	-11.6699
▁Nan	-11.6704
▁posted	-11.6706
▁author	-11.6706
▁neat	-11.6714
teful	-11.6716
▁Ken	-11.6717
week	-11.6717
rote	-11.6719
aughter	-11.6723
▁yard	-11.6728
▁Nine	-11.6735
▁polite	-11.6743
TV	-11.6747
try	-11.675
base	-11.6782
▁Vis	-11.679
▁curl	-11.6797
▁ripe	-11.6797
▁slice	-11.6805
olog	-11.6814
▁exception	-11.682
▁perm	-11.6823
▁spill	-11.6824
will	-11.6826
dium	-11.6844
▁Nick	-11.6845
▁purchas	-11.6856
away	-11.6868
lies	-11.6868
▁sights	-11.6869
▁ti	-11.6872
▁chase	-11.6876
▁cle	-11.6889
▁Law	-11.6892
▁Hond	-11.6901
▁DVD	-11.6911
▁earthquake	-11.6915
▁Laur	-11.6916
agement	-11.6916
ups	-11.6919
▁booth	-11.6934
▁actor	-11.694
▁Main	-11.6942
▁Onl	-11.6943
elling	-11.6949
▁museums	-11.6951
place	-11.6969
▁la	-11.6975
▁chart	-11.6981
proof	-11.6983
virus	-11.6986
DD	-11.6994
▁Bu	-11.7011
▁stain	-11.7013
ground	-11.7028
there	-11.7031
▁lad	-11.7032
▁efficien	-11.7036
▁choos	-11.7045
rew	-11.7046
▁sa	-11.7059
ama	-11.7062
hannel	-11.7067
▁Korea	-11.7069
▁Ja	-11.708
▁luxur	-11.7081
▁buffet	-11.7081
▁IBM	-11.7081
▁Thirty	-11.7082
▁exceed	-11.7083
embark	-11.7083
▁Back	-11.7083
▁Jerry	-11.7085
▁winning	-11.7088
▁edition	-11.7089
▁Museum	-11.7091
▁enroll	-11.7091
▁Holiday	-11.7091
▁mascara	-11.7091
▁peel	-11.7091
▁disturb	-11.7091
▁Saving	-11.7092
▁Thailand	-11.7092
▁23	-11.7092
▁determine	-11.7092
▁fridge	-11.7093
▁overdraft	-11.7093
▁argument	-11.7093
▁Michel	-11.7093
▁crunch	-11.7094
▁notebook	-11.7094
▁lifestyle	-11.7094
▁executive	-11.7094
▁wholesale	-11.7095
▁ninety	-11.7096
▁operator	-11.7096
▁ambulance	-11.7096
▁Eric	-11.7096
▁scientist	-11.7096
▁bleeding	-11.7097
▁southern	-11.7098
▁assistance	-11.71
▁academic	-11.7102
▁arrival	-11.7105
▁Agency	-11.7105
eep	-11.7107
▁robbery	-11.7108
▁housework	-11.7109
lick	-11.7111
▁quicker	-11.7115
▁occupation	-11.712
▁ward	-11.712
▁600	-11.7132
▁tempt	-11.7132
▁Jan	-11.7135
▁Out	-11.7136
nasty	-11.7155
▁thirteen	-11.7157
▁Serious	-11.7157
▁British	-11.7157
ite	-11.7158
▁suck	-11.7161
wake	-11.7162
▁manufacturer	-11.7168
▁Brad	-11.7172
▁Parker	-11.7176
bar	-11.7179
ttle	-11.718
▁mp	-11.718
▁rating	-11.7192
▁steps	-11.7195
▁Se	-11.72
▁closes	-11.7208
▁Stay	-11.7211
▁sleeve	-11.7217
▁becom	-11.722
▁union	-11.7226
dden	-11.7233
▁Poo	-11.7238
▁dome	-11.724
table	-11.7255
▁root	-11.726
▁ho	-11.7264
pot	-11.7267
▁brows	-11.7277
itness	-11.7283
ments	-11.7293
▁virtu	-11.7304
▁Manage	-11.7304
▁examine	-11.731
ul	-11.7314
▁Asian	-11.7322
them	-11.7325
shed	-11.7333
▁divide	-11.7337
▁trou	-11.7341
▁upper	-11.7355
▁amen	-11.7361
▁Twenty	-11.7369
G	-11.7373
▁exten	-11.7376
▁Guang	-11.7393
▁west	-11.7396
▁pe	-11.74
▁Mars	-11.7408
ndy	-11.741
zh	-11.7427
▁ignore	-11.7427
▁pul	-11.7427
▁Spa	-11.7454
view	-11.7461
▁scratch	-11.7462
▁imp	-11.7468
▁nasty	-11.747
▁cast	-11.747
▁Dur	-11.748
ool	-11.7497
▁ought	-11.7497
▁Couldn	-11.7503
▁booking	-11.7533
▁hunt	-11.7535
▁sel	-11.7543
ross	-11.7544
▁predict	-11.7545
J	-11.7559
▁po	-11.7564
▁Chan	-11.7569
▁exist	-11.7573
▁ja	-11.758
▁Lat	-11.7593
▁twi	-11.7602
▁passes	-11.7609
▁Eight	-11.7624
▁weakness	-11.7625
▁provid	-11.7636
▁Hawaii	-11.7636
▁column	-11.7636
▁victim	-11.7636
▁prompt	-11.7636
▁seminar	-11.7636
▁monitor	-11.7636
▁lobster	-11.7636
▁treasure	-11.7636
▁ghost	-11.7637
▁sidewalk	-11.7637
▁surgery	-11.7637
▁Summer	-11.7637
▁eager	-11.7638
▁release	-11.7638
▁Cross	-11.7639
▁Carol	-11.764
▁cancell	-11.764
▁negotiation	-11.764
▁Life	-11.7641
▁Economic	-11.7641
▁fiance	-11.7641
▁elder	-11.7645
▁Jill	-11.7645
▁Macintosh	-11.7647
▁Francisco	-11.7647
▁mathematic	-11.7647
▁intelligen	-11.7647
▁reconfirm	-11.7648
▁contribution	-11.765
▁physics	-11.7654
▁cardboard	-11.7654
▁blackout	-11.766
▁Tai	-11.7669
antastic	-11.767
▁narrow	-11.7672
▁entry	-11.7672
trial	-11.7672
rance	-11.7673
▁Kell	-11.7676
▁Talk	-11.7682
▁logo	-11.7682
▁compar	-11.7687
▁sneak	-11.7689
▁temporar	-11.7698
person	-11.7705
▁gentle	-11.7705
▁valid	-11.7706
▁naturally	-11.7708
od	-11.7714
▁chemical	-11.7715
reless	-11.7717
▁froze	-11.772
▁dryer	-11.7731
wear	-11.7734
▁Lu	-11.7741
▁inquir	-11.7741
xpress	-11.7747
▁organi	-11.7765
▁seri	-11.777
NT	-11.7773
▁murder	-11.7774
▁bush	-11.7776
▁Intern	-11.7778
den	-11.7779
▁Cath	-11.7783
gun	-11.7796
▁reflect	-11.7822
▁blond	-11.7823
▁Fift	-11.7826
see	-11.7832
onna	-11.7835
▁musical	-11.7854
▁Bang	-11.7855
▁reporter	-11.7856
▁comment	-11.7863
▁cha	-11.7865
▁Chang	-11.7867
vision	-11.7875
lock	-11.7877
▁reminding	-11.7882
llen	-11.7885
▁identi	-11.7887
style	-11.7892
▁wire	-11.7904
▁fo	-11.792
▁Harr	-11.7972
tter	-11.7979
▁Art	-11.799
▁documentar	-11.7992
▁Ch	-11.7994
▁appli	-11.8004
▁knee	-11.8021
_	-11.8023
ica	-11.8028
▁processing	-11.8035
EL	-11.8038
▁guard	-11.8043
▁locat	-11.8049
▁Kath	-11.8055
H	-11.8059
▁Pay	-11.8059
▁lid	-11.8063
know	-11.8067
▁ending	-11.8077
▁ripped	-11.8093
▁tak	-11.8099
▁Hav	-11.81
▁worn	-11.8102
▁island	-11.8104
z	-11.8107
▁Rock	-11.8116
▁desire	-11.8117
rely	-11.8119
▁inch	-11.8124
▁allergi	-11.8133
▁Times	-11.8142
topping	-11.8146
▁pregnan	-11.8146
section	-11.8153
seven	-11.8162
▁myster	-11.8181
ants	-11.8206
ngzh	-11.8213
▁plum	-11.8214
band	-11.8217
▁stole	-11.8219
▁accomplish	-11.822
▁Jordan	-11.8225
▁Microsoft	-11.8225
▁aerobic	-11.8225
▁bracelet	-11.8225
▁pamphlet	-11.8225
▁explanation	-11.8225
▁album	-11.8225
▁banana	-11.8225
▁Garden	-11.8225
▁Music	-11.8225
▁Yellow	-11.8225
▁mushroom	-11.8225
▁via	-11.8225
▁Christian	-11.8225
▁premium	-11.8226
▁blank	-11.8226
▁shuttle	-11.8226
▁cupboard	-11.8226
▁applicant	-11.8227
▁preference	-11.8229
▁quotation	-11.8229
▁Brook	-11.8229
▁appearance	-11.8231
▁capacit	-11.8232
▁injured	-11.8233
▁owner	-11.8233
▁appoint	-11.8238
hing	-11.8238
▁editor	-11.8239
▁careless	-11.8239
▁pub	-11.8239
▁LA	-11.8239
▁resign	-11.8242
▁bac	-11.8244
▁Korean	-11.8249
▁Trade	-11.8255
▁ad	-11.8257
▁Donald	-11.8258
▁suburbs	-11.8261
▁Gold	-11.8262
▁floors	-11.827
▁nuts	-11.8274
▁Adventure	-11.8277
▁objective	-11.8277
▁participate	-11.8282
▁Thai	-11.8282
No	-11.8282
▁freak	-11.8289
▁wound	-11.829
▁screw	-11.8306
▁Robin	-11.8309
water	-11.831
▁Mine	-11.8322
cific	-11.8325
etter	-11.833
80	-11.8331
▁managers	-11.8337
▁nor	-11.8342
▁combine	-11.8352
▁breast	-11.8375
minute	-11.8394
▁peak	-11.8394
atch	-11.8404
▁Leo	-11.8405
▁secure	-11.8406
▁Econom	-11.8408
▁Po	-11.8419
ls	-11.842
arts	-11.8425
▁Ask	-11.8425
▁competen	-11.8425
▁Opera	-11.8426
▁wise	-11.8439
▁va	-11.8455
▁Alt	-11.8456
▁mo	-11.8459
▁appropriate	-11.847
▁Red	-11.849
▁CE	-11.8502
▁photographs	-11.8508
ns	-11.8518
▁Cook	-11.8523
▁flow	-11.8525
▁medica	-11.853
▁grant	-11.8532
▁Sea	-11.8535
▁Van	-11.854
▁pure	-11.8542
sensiti	-11.8542
▁galler	-11.8553
▁conditioner	-11.8556
sure	-11.8573
▁promis	-11.8584
tanic	-11.8594
ray	-11.8602
08	-11.8648
cuse	-11.8665
▁outst	-11.8677
▁26	-11.8687
state	-11.8692
ters	-11.8693
▁differently	-11.8694
companie	-11.8695
▁AC	-11.8697
hen	-11.8701
▁reput	-11.8702
▁sh	-11.8704
rate	-11.8736
▁Ran	-11.8742
▁La	-11.8745
shan	-11.8746
warmer	-11.8755
▁Book	-11.8756
▁shine	-11.8805
▁bend	-11.8814
▁float	-11.8815
▁refer	-11.8819
ars	-11.8821
▁Asia	-11.8829
▁Fr	-11.8837
▁potato	-11.8838
▁chick	-11.8846
▁banquet	-11.885
▁reimburse	-11.885
▁leisure	-11.885
▁pharmac	-11.885
▁Diana	-11.885
▁Jessica	-11.885
▁jazz	-11.885
▁tattoo	-11.885
▁napkin	-11.885
▁poison	-11.885
▁Ryan	-11.885
▁reunion	-11.885
▁steward	-11.885
▁fourteen	-11.885
▁password	-11.885
▁scrambl	-11.885
▁Blue	-11.885
▁admission	-11.8851
▁counselor	-11.8851
▁classified	-11.8851
▁introduction	-11.8851
▁sentence	-11.8852
▁powerful	-11.8852
▁ankle	-11.8853
▁Winter	-11.8855
▁tidy	-11.8855
▁rumor	-11.8855
▁Computer	-11.8856
▁Sales	-11.8858
▁Honest	-11.8859
▁flick	-11.886
▁punish	-11.8861
fficient	-11.8862
▁Study	-11.8862
▁teenager	-11.8863
▁penalt	-11.8863
▁Post	-11.8865
▁nightmare	-11.8866
▁Russian	-11.8867
▁bandage	-11.8868
▁classroom	-11.8868
▁Mc	-11.8875
▁attraction	-11.8876
▁apparent	-11.8881
▁Oak	-11.8886
▁publication	-11.8888
▁nutrition	-11.889
▁primar	-11.8892
▁outlet	-11.8896
▁inquire	-11.8898
▁encourag	-11.8899
Your	-11.8899
raw	-11.8907
▁competitors	-11.8909
▁Son	-11.8921
All	-11.8926
▁freez	-11.8928
ung	-11.8931
▁sixteen	-11.8933
▁Medium	-11.8934
▁underst	-11.8937
paid	-11.8937
▁swear	-11.8945
▁Suz	-11.8946
▁inspect	-11.8946
▁seventy	-11.8948
▁cooker	-11.8953
▁Late	-11.8954
▁snake	-11.8959
▁strip	-11.8965
▁1000	-11.8966
▁Chris	-11.8982
talent	-11.8994
▁TO	-11.8995
ck	-11.8995
▁swing	-11.8995
did	-11.8995
▁Dollar	-11.9006
upper	-11.9012
▁Jud	-11.9014
▁flie	-11.9016
▁cru	-11.9021
▁warn	-11.9024
▁Pl	-11.9027
thing	-11.9033
▁Cup	-11.9037
lent	-11.904
▁Shi	-11.904
▁dat	-11.9044
▁movement	-11.9053
▁candle	-11.9055
▁Jul	-11.9065
dena	-11.907
▁Canton	-11.9075
▁ar	-11.9083
icle	-11.9086
▁slipper	-11.9091
▁duti	-11.9094
condition	-11.9094
▁expir	-11.9099
Thanks	-11.9109
▁Pass	-11.9114
▁signal	-11.9117
▁fac	-11.9117
▁Stars	-11.912
▁gamble	-11.9129
▁centur	-11.9134
vant	-11.9134
ops	-11.9143
▁practic	-11.9146
▁complicat	-11.9146
▁edit	-11.9147
test	-11.9154
mi	-11.9162
▁manufacture	-11.9166
▁Nov	-11.917
▁onion	-11.9181
▁intens	-11.9183
▁chop	-11.9191
▁Gee	-11.9206
▁sings	-11.9216
fu	-11.9217
good	-11.9227
▁row	-11.9231
takes	-11.9231
please	-11.9238
▁Las	-11.9241
▁authorit	-11.9249
▁Use	-11.9256
By	-11.9258
▁Hang	-11.9263
▁listing	-11.9268
point	-11.9268
aid	-11.9269
fully	-11.9269
▁starter	-11.9271
▁flag	-11.9274
ely	-11.928
range	-11.9291
ched	-11.9297
ak	-11.9306
▁delicate	-11.9326
▁clue	-11.9329
izza	-11.9329
▁confuse	-11.9333
▁gre	-11.9334
ding	-11.9349
▁needle	-11.9361
ering	-11.9367
▁buttons	-11.9372
▁Ping	-11.9381
▁turns	-11.9381
oke	-11.9386
▁handy	-11.9387
wn	-11.9389
▁leaders	-11.9389
▁corn	-11.939
ms	-11.9402
▁Su	-11.9404
ango	-11.9409
ri	-11.9415
▁lag	-11.9424
mad	-11.9425
ching	-11.9432
alian	-11.9436
▁wet	-11.9452
▁n	-11.9458
▁Lot	-11.946
bit	-11.949
▁sleepy	-11.9501
▁Shar	-11.9504
▁univers	-11.9516
▁Brazil	-11.9516
▁economics	-11.9516
▁blossom	-11.9516
▁introvert	-11.9516
▁pronunciation	-11.9516
▁tourniquet	-11.9516
▁disappear	-11.9516
▁mattress	-11.9516
▁disadvantage	-11.9516
▁volleyball	-11.9516
▁margin	-11.9516
▁rabbit	-11.9516
▁Reservation	-11.9516
▁chapter	-11.9516
▁instructor	-11.9517
▁airsick	-11.9517
▁stiff	-11.9517
▁Dinner	-11.9517
▁emotion	-11.9518
▁stockholder	-11.9518
▁Euro	-11.9518
▁version	-11.9519
▁Andrew	-11.952
▁repayment	-11.952
▁fulfill	-11.952
▁cancellation	-11.952
▁Jean	-11.952
▁accommodation	-11.9521
▁electrici	-11.9522
▁unexpected	-11.9523
▁percentage	-11.9523
▁sheep	-11.9524
▁occasionally	-11.9526
▁Tower	-11.953
▁recharge	-11.953
▁cruise	-11.953
▁weaknesses	-11.9531
magine	-11.9534
▁thriller	-11.9534
▁proficient	-11.9535
▁Mother	-11.9536
▁fastest	-11.9537
▁temper	-11.9537
▁slack	-11.954
▁efficiently	-11.954
▁Easter	-11.9542
garet	-11.9546
▁packet	-11.9549
▁thirtie	-11.9549
▁baker	-11.9549
▁administration	-11.955
▁Interesting	-11.9551
▁deduct	-11.9551
▁twist	-11.9558
▁shave	-11.956
▁environmental	-11.9565
IKE	-11.9566
▁dresse	-11.9568
▁drama	-11.9572
▁philosoph	-11.9575
iced	-11.9576
▁sweep	-11.9576
akes	-11.9581
▁Trad	-11.9582
ah	-11.959
presso	-11.9595
▁ador	-11.9607
say	-11.9608
▁compact	-11.9608
12	-11.961
▁enthusiastic	-11.9613
▁asset	-11.9614
▁Financ	-11.9615
▁dough	-11.9617
▁practise	-11.9625
robe	-11.9627
▁interpret	-11.9632
▁critical	-11.9643
▁adults	-11.9649
meal	-11.9654
▁suffering	-11.9656
▁pupp	-11.9661
▁drawer	-11.9664
▁civil	-11.9668
▁van	-11.967
▁Tod	-11.9681
▁complaining	-11.9682
▁Australian	-11.9689
cal	-11.9695
▁continent	-11.9696
▁Ar	-11.9697
▁pow	-11.9703
▁reputa	-11.9705
▁wrapp	-11.9706
▁roller	-11.9707
distance	-11.9708
▁Ob	-11.9709
▁Darl	-11.971
turn	-11.9714
ot	-11.9728
▁auction	-11.9733
▁statu	-11.9734
▁animat	-11.9735
anding	-11.9737
case	-11.9737
▁lover	-11.9745
enty	-11.9753
▁introduc	-11.9755
yo	-11.9769
▁needn	-11.9779
▁Contin	-11.9793
▁eighty	-11.9794
fi	-11.9797
tom	-11.9801
▁hid	-11.9803
tball	-11.9814
▁nut	-11.9824
▁Jen	-11.9828
▁cooler	-11.983
▁palm	-11.9831
ony	-11.9835
86	-11.9863
▁specialize	-11.9877
▁drops	-11.9888
▁wealth	-11.9892
▁learner	-11.9898
fic	-11.9899
AM	-11.9903
▁experienc	-11.9904
▁swo	-11.9913
▁Fun	-11.9915
-555-1	-11.992
▁Beck	-11.9933
ag	-11.9938
▁cub	-11.9938
bidde	-11.9956
▁ge	-11.9964
ide	-11.9973
▁cop	-11.9975
▁seasons	-11.9982
▁sung	-11.9985
▁pig	-12.0006
▁behave	-12.001
▁stroke	-12.0013
robably	-12.0024
▁clo	-12.0027
▁Ladi	-12.0029
la	-12.0036
▁180	-12.0046
▁perk	-12.005
ible	-12.0067
too	-12.0074
▁110	-12.0075
ked	-12.0077
▁object	-12.0086
Take	-12.009
▁consist	-12.0094
sers	-12.0096
▁Flor	-12.0097
▁pitch	-12.0101
ced	-12.0103
▁tank	-12.0113
▁Eat	-12.0134
otic	-12.0147
terior	-12.0152
two	-12.0157
nder	-12.0164
▁organ	-12.0165
ba	-12.0172
▁venture	-12.018
▁Jing	-12.0181
row	-12.0197
▁severe	-12.0199
gan	-12.0199
▁purp	-12.0201
ins	-12.0202
piece	-12.0218
▁pla	-12.022
▁catalog	-12.0229
▁Ri	-12.023
▁Awesome	-12.023
▁Rachel	-12.023
▁Stanley	-12.023
▁breeze	-12.023
▁extrovert	-12.023
▁dictionar	-12.0231
▁initiative	-12.0231
▁kilogram	-12.0231
▁Airport	-12.0231
▁cashmere	-12.0231
▁conservative	-12.0231
▁newcomer	-12.0231
▁Granger	-12.0231
▁revenue	-12.0231
▁grandma	-12.0231
▁waterfall	-12.0231
▁cashier	-12.0232
ointment	-12.0232
▁infection	-12.0232
▁investigation	-12.0233
ketch	-12.0233
▁convey	-12.0234
▁adapt	-12.0234
▁palace	-12.0236
▁disaster	-12.0236
▁cheek	-12.0236
▁restroom	-12.0239
▁Award	-12.0239
PR	-12.0241
▁genre	-12.0241
▁Store	-12.0242
▁heal	-12.0244
▁cabin	-12.0245
▁mile	-12.0246
▁River	-12.0247
▁fuss	-12.0248
▁diligent	-12.0248
▁shining	-12.025
▁circumstances	-12.025
▁auto	-12.025
▁filling	-12.0252
▁Smoking	-12.0256
▁residenc	-12.0257
▁hills	-12.0258
Bye	-12.0259
▁hug	-12.0262
▁cosmetics	-12.0262
▁foul	-12.0265
▁Terr	-12.0266
▁biz	-12.0269
▁cutting	-12.0275
▁2000	-12.0276
im	-12.0278
nts	-12.0282
▁sticker	-12.0282
▁respond	-12.0285
▁overhea	-12.0286
lines	-12.0291
▁dispute	-12.0291
ess	-12.0295
▁rele	-12.0301
NY	-12.0307
▁threaten	-12.0307
▁handicap	-12.0308
▁lounge	-12.0316
co	-12.0324
▁evaluation	-12.0325
▁flyer	-12.0332
pped	-12.0337
▁Bell	-12.0338
▁Must	-12.0341
▁priva	-12.0345
▁Grant	-12.0353
▁statue	-12.0368
▁Health	-12.0378
▁joint	-12.038
pace	-12.0384
▁dim	-12.0385
▁categor	-12.0385
umber	-12.0389
▁Dec	-12.0392
▁boost	-12.0397
▁Ne	-12.0398
▁freeze	-12.0407
▁con	-12.0413
▁201	-12.0414
▁liter	-12.0415
▁Huang	-12.0425
els	-12.0427
hall	-12.0432
tting	-12.0436
ks	-12.0436
▁vo	-12.0442
▁lane	-12.0442
▁banker	-12.0457
traight	-12.0462
▁Bru	-12.0464
cake	-12.0466
Look	-12.0476
For	-12.0479
▁High	-12.0479
▁fin	-12.0482
▁spit	-12.0495
ike	-12.0505
aving	-12.0506
▁robbe	-12.0512
world	-12.0516
▁Leav	-12.0516
▁psycholog	-12.0521
▁Bar	-12.0526
▁nurs	-12.0527
nice	-12.0529
▁male	-12.053
Card	-12.0545
▁accidental	-12.055
expensive	-12.0556
▁criticize	-12.0562
▁hir	-12.0563
▁36	-12.0564
▁passe	-12.0568
ze	-12.0569
hou	-12.0577
hey	-12.0582
▁suggested	-12.0583
▁chore	-12.0584
▁silen	-12.059
▁Normal	-12.0592
unt	-12.0597
▁Ba	-12.0605
05	-12.0606
killer	-12.061
nic	-12.0612
they	-12.0629
▁Christ	-12.0629
▁tool	-12.0649
▁Fo	-12.0653
▁industri	-12.0665
▁producer	-12.0665
ded	-12.0666
Li	-12.0666
few	-12.0672
tle	-12.0678
ium	-12.0679
▁spin	-12.0682
▁tower	-12.0684
▁Tian	-12.0688
▁produc	-12.069
▁workout	-12.0719
▁bagg	-12.072
▁ver	-12.0731
furnish	-12.0744
▁sitt	-12.0744
min	-12.0775
▁Mali	-12.0783
▁Car	-12.0787
▁collar	-12.0818
▁Inn	-12.0818
screen	-12.0825
▁hat	-12.0826
▁recall	-12.0837
▁sec	-12.0848
▁wro	-12.0851
▁manual	-12.0861
▁cow	-12.0888
os	-12.0899
▁rais	-12.0913
▁translat	-12.0914
▁sponsor	-12.0916
give	-12.092
▁happie	-12.0924
eez	-12.0926
▁v	-12.0935
Some	-12.0936
▁qualifi	-12.0945
weight	-12.0955
▁Grandm	-12.0957
▁Scot	-12.0961
▁Russia	-12.0978
jun	-12.0978
▁symbol	-12.0999
▁Eliza	-12.1
▁badminton	-12.1
▁sacrifice	-12.1
▁exquisite	-12.1
▁genius	-12.1
▁recruit	-12.1
▁conflict	-12.1
▁component	-12.1
▁Tiger	-12.1
▁confiscate	-12.1
▁dehydrat	-12.1
▁peanut	-12.1
▁absence	-12.1
▁automobile	-12.1
▁Termina	-12.1
▁characteristic	-12.1
▁bankrupt	-12.1
▁fluff	-12.1
▁obtain	-12.1
▁sympath	-12.1
▁helmet	-12.1
▁bullet	-12.1001
▁Miller	-12.1001
▁district	-12.1001
▁gather	-12.1001
▁Adam	-12.1001
▁technician	-12.1002
▁Cheque	-12.1002
▁heavily	-12.1002
▁bloom	-12.1002
▁dreadful	-12.1005
▁Seven	-12.1006
▁excess	-12.1006
▁hacker	-12.1008
▁Angel	-12.1009
▁Chinatown	-12.101
▁Easy	-12.1012
▁gener	-12.1012
▁sailing	-12.1013
▁relie	-12.1016
thirty	-12.1017
▁semi	-12.1023
▁friendl	-12.1025
was	-12.1026
▁modest	-12.1026
▁concept	-12.1036
▁handset	-12.1037
▁satisfy	-12.1038
▁inventor	-12.1038
▁investor	-12.1038
▁Corporat	-12.1043
▁reschedule	-12.1044
▁pile	-12.1048
▁learne	-12.105
llo	-12.1055
date	-12.1057
▁gathering	-12.1057
▁queue	-12.1058
ttorney	-12.1062
▁beep	-12.1063
▁tube	-12.1072
▁insure	-12.1073
▁mutual	-12.1073
▁Water	-12.1082
▁repl	-12.1088
▁Kim	-12.109
▁poem	-12.1091
ps	-12.1091
▁vary	-12.1094
▁discounts	-12.1095
▁Aha	-12.1096
▁trivia	-12.1097
▁dragon	-12.1102
▁involv	-12.1102
▁sunn	-12.1108
▁courage	-12.113
▁bun	-12.1131
▁Hal	-12.1133
▁stepp	-12.1133
stone	-12.1157
▁media	-12.1164
revoca	-12.1179
▁speaker	-12.1183
▁dime	-12.1184
▁popula	-12.1186
ueen	-12.1187
▁Sweet	-12.1194
▁MP	-12.12
▁speci	-12.121
▁cliff	-12.1214
▁mon	-12.1217
necessar	-12.1219
ada	-12.122
▁cart	-12.1237
▁Accounting	-12.1239
wide	-12.1244
wadays	-12.1245
▁Tea	-12.1257
▁conserv	-12.1263
utch	-12.1265
▁putt	-12.1278
▁bail	-12.1324
▁winds	-12.133
gar	-12.1336
ner	-12.1341
▁licen	-12.1344
▁operat	-12.1357
▁65	-12.136
▁scen	-12.136
real	-12.1365
▁productiv	-12.1369
direct	-12.1378
cloth	-12.1381
▁spark	-12.1382
▁represent	-12.1396
▁curio	-12.1403
▁priorit	-12.1405
ital	-12.1412
▁Gr	-12.1412
▁Deb	-12.1419
▁tonic	-12.1429
▁reported	-12.1434
▁rum	-12.144
fer	-12.1448
▁Cam	-12.1462
▁min	-12.1463
▁kee	-12.1479
▁Gua	-12.1483
bridge	-12.149
tic	-12.1492
▁remitt	-12.1494
▁printing	-12.1499
▁browse	-12.1499
▁cleans	-12.1501
west	-12.1502
ford	-12.1503
▁packag	-12.1503
rath	-12.153
▁boog	-12.1533
▁wage	-12.1539
tery	-12.1542
▁journalis	-12.1546
▁Cut	-12.1557
hinese	-12.1565
▁grandpa	-12.1567
PA	-12.1574
▁Buy	-12.1577
▁Final	-12.1586
▁groom	-12.1589
ris	-12.1598
▁Aut	-12.1612
▁assume	-12.1613
▁Dea	-12.1622
ept	-12.1622
▁reject	-12.1639
▁Ming	-12.1644
patch	-12.1646
ick	-12.1646
ficial	-12.1648
▁calculate	-12.1651
fortunate	-12.1657
half	-12.1666
▁fellow	-12.1667
▁Matt	-12.1676
ement	-12.1685
18	-12.1686
med	-12.1689
▁adult	-12.1695
trip	-12.1706
▁thre	-12.171
mory	-12.1726
▁specialt	-12.1747
42	-12.1755
▁relation	-12.176
▁parent	-12.176
American	-12.1765
▁prison	-12.1771
▁visitor	-12.1784
▁sal	-12.1786
car	-12.179
press	-12.1802
▁drag	-12.1804
pong	-12.1806
▁allerg	-12.182
fish	-12.182
uccin	-12.1826
friend	-12.183
▁diploma	-12.1833
▁Language	-12.1833
▁Relax	-12.1833
▁architecture	-12.1833
▁female	-12.1833
▁sculpture	-12.1833
▁volume	-12.1833
▁sausage	-12.1833
▁caffei	-12.1833
▁Broadway	-12.1833
▁clinic	-12.1833
▁itinerar	-12.1833
▁turkey	-12.1833
▁dormitor	-12.1833
▁engagement	-12.1833
▁audition	-12.1833
▁discourage	-12.1833
▁Field	-12.1833
▁Chicken	-12.1833
▁dishonest	-12.1833
▁dishwash	-12.1834
▁Kitty	-12.1834
▁continuous	-12.1834
▁stomachache	-12.1834
▁criminal	-12.1834
▁www	-12.1834
▁protein	-12.1834
▁Export	-12.1834
▁Smell	-12.1834
▁drift	-12.1835
▁tutor	-12.1835
▁fundraiser	-12.1835
▁lousy	-12.1835
▁disgust	-12.1836
▁Sign	-12.1836
▁pearl	-12.1836
▁gentleman	-12.1836
▁affection	-12.1837
bu	-12.1837
626	-12.1837
▁Under	-12.1837
▁distraction	-12.1839
ara	-12.184
▁Pick	-12.184
▁Money	-12.1841
▁instant	-12.1841
▁accent	-12.1843
▁flour	-12.1845
limit	-12.1847
▁washer	-12.1847
▁assess	-12.1847
▁prime	-12.1849
▁Bird	-12.1853
▁Barb	-12.1854
mport	-12.1862
▁dramatic	-12.1863
▁homeless	-12.1869
▁session	-12.1869
▁guil	-12.187
▁copier	-12.1875
▁wit	-12.1879
▁boots	-12.1879
▁applie	-12.1881
▁Mei	-12.1884
After	-12.1885
▁leftover	-12.1891
▁Island	-12.1892
personal	-12.1895
▁Mid	-12.1897
fare	-12.1904
ably	-12.1907
FO	-12.1909
▁Port	-12.1913
ruise	-12.1918
ouquet	-12.1927
▁gr	-12.1931
blew	-12.1933
▁constructi	-12.1934
▁Cooper	-12.1935
▁circulati	-12.1959
ture	-12.1969
▁signing	-12.1977
▁Stone	-12.1978
quality	-12.1985
▁bound	-12.1987
utton	-12.1994
▁Uni	-12.1995
nine	-12.2002
▁maker	-12.2013
lease	-12.2015
RE	-12.2017
course	-12.202
face	-12.2022
▁55	-12.2027
▁schem	-12.2028
rselves	-12.204
▁2,	-12.2041
ki	-12.2047
▁fir	-12.2047
orient	-12.2049
would	-12.2054
▁fold	-12.2054
▁accurate	-12.2058
▁jar	-12.2062
▁programmer	-12.2065
▁Insurance	-12.2067
tain	-12.2071
▁matche	-12.2079
▁lens	-12.2082
▁squeeze	-12.2084
▁newly	-12.2086
▁Test	-12.2098
▁Westerner	-12.21
lence	-12.2103
child	-12.2106
▁manicure	-12.2108
▁resident	-12.2119
etti	-12.2133
▁capabilit	-12.2136
▁Hill	-12.2137
lace	-12.2138
box	-12.2143
▁dip	-12.2151
▁Regula	-12.2155
▁biograph	-12.2168
▁Wars	-12.2183
story	-12.2184
hine	-12.2195
▁Securit	-12.2196
▁Wei	-12.2197
nior	-12.22
▁lik	-12.2205
▁38	-12.2205
▁seal	-12.2227
ichu	-12.2231
▁Send	-12.2243
▁invent	-12.2244
▁scienti	-12.2248
▁41	-12.2252
▁Thou	-12.2258
truck	-12.2267
▁Dut	-12.2283
▁painted	-12.2296
▁Nation	-12.2305
ix	-12.2313
▁scent	-12.2314
dog	-12.2315
▁arrang	-12.2318
from	-12.232
▁carrie	-12.2321
yard	-12.2324
▁aim	-12.2329
rous	-12.2333
play	-12.2339
▁programm	-12.2343
▁CP	-12.2355
▁studi	-12.2361
▁resolve	-12.2367
▁Sil	-12.237
ngle	-12.2379
former	-12.2392
▁Train	-12.2392
aster	-12.2394
▁clam	-12.2398
ington	-12.24
▁gut	-12.2402
▁Wind	-12.241
father	-12.2422
▁deck	-12.2424
▁Far	-12.2432
▁compa	-12.2432
▁arti	-12.2436
iversity	-12.2438
▁beneficia	-12.2463
▁Ell	-12.2467
operation	-12.2474
78	-12.2478
Did	-12.2481
At	-12.2486
▁Sal	-12.249
▁rubb	-12.2493
ipping	-12.2502
▁critic	-12.2514
▁agenc	-12.2533
ti	-12.2554
ney	-12.2559
▁Phoe	-12.2559
upon	-12.2562
ia	-12.257
▁hmm	-12.2577
▁motivate	-12.2582
mine	-12.2585
▁grad	-12.2599
▁latte	-12.2602
▁Jo	-12.2605
▁duri	-12.2612
tan	-12.2615
called	-12.262
kin	-12.2627
erine	-12.2632
On	-12.2652
ons	-12.2654
▁Travell	-12.2658
▁dro	-12.2663
85	-12.2668
▁Feel	-12.2668
▁Anth	-12.2676
▁Ke	-12.2678
▁forbid	-12.2684
Mr	-12.2688
▁tir	-12.2699
istic	-12.27
▁subscribe	-12.2708
▁butterfl	-12.2713
▁Land	-12.2719
▁protecti	-12.272
▁5000	-12.2722
check	-12.2732
▁bab	-12.2739
▁restrict	-12.274
▁cigar	-12.2742
▁Joseph	-12.2742
▁Malaysia	-12.2742
▁Singapore	-12.2742
▁bathtub	-12.2742
▁Engineer	-12.2742
▁eligib	-12.2742
▁eyelash	-12.2742
▁correspondence	-12.2742
▁galax	-12.2742
▁McDonald	-12.2742
▁Resource	-12.2742
▁Jeff	-12.2742
▁toothbrush	-12.2742
▁adopt	-12.2742
▁Clark	-12.2742
▁ceiling	-12.2742
▁euro	-12.2742
▁Brazilian	-12.2742
▁decline	-12.2742
▁conclusion	-12.2743
▁decade	-12.2743
▁UFO	-12.2743
▁mileage	-12.2743
▁encounter	-12.2743
▁Beautiful	-12.2743
▁weapon	-12.2743
▁cosmo	-12.2744
▁Irish	-12.2744
▁realistic	-12.2745
▁cartoon	-12.2745
▁sunset	-12.2745
▁chubb	-12.2746
▁rapidly	-12.2746
▁alien	-12.2746
▁Through	-12.2746
▁Small	-12.2746
▁Sa	-12.2747
▁hardcover	-12.2747
▁illness	-12.2747
▁retreat	-12.2747
errific	-12.2748
▁Bush	-12.275
▁announcement	-12.275
▁athletic	-12.2751
▁attachment	-12.2751
ors	-12.2751
▁translation	-12.2751
hunter	-12.2753
▁disagreement	-12.2754
lia	-12.2757
▁violin	-12.2757
hop	-12.2758
▁Hua	-12.2758
▁drum	-12.2759
▁infect	-12.2764
▁consultant	-12.2764
▁cal	-12.2766
▁Teacher	-12.2767
commerc	-12.277
▁chees	-12.277
▁increasing	-12.2772
ays	-12.2772
▁pitcher	-12.2773
▁garment	-12.2775
▁studio	-12.2776
.00	-12.2777
▁yog	-12.2777
▁measurement	-12.2779
huh	-12.2779
▁skip	-12.2781
▁Ka	-12.2785
▁fountain	-12.2786
▁Em	-12.2787
▁quest	-12.2789
▁headline	-12.2789
▁ham	-12.279
▁Counter	-12.2794
substantia	-12.2797
keeping	-12.2797
▁101	-12.2798
▁string	-12.2802
enter	-12.2803
▁traveller	-12.2804
▁figur	-12.2813
allowe	-12.2814
wing	-12.2814
ac	-12.2825
▁gro	-12.2827
▁Word	-12.2829
times	-12.283
▁industrial	-12.2833
▁Copel	-12.2833
▁poet	-12.2833
▁emphasize	-12.2835
▁grat	-12.2835
▁misse	-12.2837
ipped	-12.2841
▁upgrad	-12.2845
▁Pu	-12.2847
hopping	-12.285
▁broc	-12.2852
▁leaf	-12.2855
▁winner	-12.286
▁phones	-12.2861
ossible	-12.2864
she	-12.2867
▁medal	-12.2868
neck	-12.2868
▁outline	-12.2886
eek	-12.289
73	-12.2891
▁flame	-12.2894
alace	-12.2905
▁Woo	-12.2909
▁cruci	-12.2912
▁pinch	-12.2913
load	-12.2914
▁cavit	-12.2915
▁belonging	-12.2916
▁Mari	-12.292
▁highlight	-12.2928
▁Gra	-12.293
sing	-12.2935
led	-12.2938
▁soph	-12.2951
▁varie	-12.2951
▁veggie	-12.2957
▁Joann	-12.2957
First	-12.2961
▁slides	-12.2966
ida	-12.2973
ought	-12.2976
▁skillful	-12.2978
laborate	-12.2979
▁lighter	-12.298
mistic	-12.298
▁Rob	-12.2981
▁quiz	-12.2983
▁Jackson	-12.2986
air	-12.2992
▁comfort	-12.2995
▁sincere	-12.3
▁apolog	-12.3001
▁Pam	-12.3002
ASA	-12.3006
easy	-12.3006
athedral	-12.302
code	-12.3027
▁lectures	-12.3034
▁maid	-12.3039
▁heads	-12.306
▁rang	-12.3064
▁charg	-12.3066
▁native	-12.3074
▁sensi	-12.3081
tor	-12.3083
▁commercials	-12.3087
▁ac	-12.3098
▁Wel	-12.3099
▁significant	-12.3099
sense	-12.3099
▁demonstrate	-12.31
tually	-12.3103
tra	-12.3105
▁dealer	-12.3105
▁Wi	-12.3118
phone	-12.312
Bay	-12.3124
▁healthie	-12.3132
▁tread	-12.3136
agon	-12.3142
▁negotiat	-12.3145
▁capture	-12.3146
▁qui	-12.3152
▁occup	-12.316
▁idio	-12.3162
▁plac	-12.3171
tell	-12.3172
▁123	-12.3183
▁desert	-12.319
Any	-12.3203
▁guid	-12.322
exist	-12.3221
▁ballo	-12.3224
▁remit	-12.3226
pm	-12.3236
shape	-12.325
▁MS	-12.3256
ridge	-12.3262
▁faint	-12.329
rove	-12.329
▁ah	-12.3301
ro	-12.3302
▁Simp	-12.3305
▁pray	-12.3306
▁Dav	-12.3306
▁stable	-12.3309
▁salarie	-12.3311
▁redecorat	-12.3312
▁36.	-12.332
▁cho	-12.3322
tries	-12.3326
▁happ	-12.3326
shops	-12.3327
▁geograph	-12.3336
teams	-12.3342
▁Roy	-12.3346
▁rub	-12.335
▁oak	-12.3355
ompany	-12.3359
▁u	-12.3369
even	-12.3386
▁opti	-12.3389
level	-12.3395
▁Dance	-12.3395
tique	-12.3396
mate	-12.3397
▁suns	-12.34
dollar	-12.3408
onsumer	-12.3413
▁tele	-12.3414
▁Ital	-12.3417
▁Person	-12.3424
▁integr	-12.3427
Sorry	-12.3428
▁pil	-12.3436
▁pad	-12.3436
▁Rich	-12.344
▁bat	-12.3447
▁dea	-12.3453
▁chili	-12.3466
Black	-12.3467
▁Shan	-12.3471
pping	-12.3473
pent	-12.3477
ello	-12.3483
Probably	-12.3496
ge	-12.3502
▁Ton	-12.3503
▁401	-12.3512
▁bump	-12.3513
▁tile	-12.3528
Hey	-12.3534
▁smil	-12.3544
craft	-12.3559
▁Tw	-12.3561
▁Vi	-12.3571
▁tim	-12.3575
Parker	-12.3588
pa	-12.3597
fe	-12.3609
▁manag	-12.361
▁beginner	-12.361
inning	-12.3618
▁Ling	-12.3621
cking	-12.3639
▁gentlem	-12.3642
▁turb	-12.3649
alley	-12.3657
▁interact	-12.3669
▁Kenn	-12.3677
▁chin	-12.3677
▁Dai	-12.3685
bling	-12.3688
▁accord	-12.3688
▁nutritio	-12.3689
▁invo	-12.3692
nstitute	-12.3694
▁Earth	-12.3725
▁jog	-12.3726
▁Hans	-12.3734
▁accommodat	-12.3734
▁straw	-12.3742
▁Beethoven	-12.3742
▁approximate	-12.3742
▁camcorder	-12.3742
▁elbow	-12.3742
▁embroider	-12.3742
▁episode	-12.3742
▁fertilizer	-12.3742
▁horoscope	-12.3742
▁nephew	-12.3742
▁porcelain	-12.3742
▁rhythm	-12.3742
▁unbearabl	-12.3742
▁consignment	-12.3742
▁Jacob	-12.3742
▁cassette	-12.3742
▁postpone	-12.3742
▁liquid	-12.3742
▁implement	-12.3742
▁decrease	-12.3742
▁deductible	-12.3742
▁perspective	-12.3742
▁Dragon	-12.3742
▁waffle	-12.3742
▁dispens	-12.3742
▁jerk	-12.3742
▁Nathan	-12.3742
nstead	-12.3742
▁actress	-12.3743
▁amendment	-12.3743
▁loyalty	-12.3743
▁experiment	-12.3743
▁Clinton	-12.3743
▁freelance	-12.3743
▁clogg	-12.3743
▁informative	-12.3743
▁fetch	-12.3743
▁faste	-12.3743
▁Ruth	-12.3744
▁embass	-12.3744
▁failure	-12.3744
▁Arden	-12.3744
▁praise	-12.3744
▁patent	-12.3744
▁persever	-12.3744
▁Simon	-12.3745
▁burglar	-12.3745
▁steel	-12.3745
▁Karl	-12.3745
▁monkey	-12.3745
▁soldier	-12.3745
▁breathtaking	-12.3746
▁Board	-12.3746
▁battle	-12.3747
▁Greg	-12.3747
▁insert	-12.3748
▁assembl	-12.3748
▁declaration	-12.3749
knife	-12.3749
▁photocopie	-12.3751
▁comprehensi	-12.3753
▁paperback	-12.3754
▁firework	-12.3754
▁postage	-12.3754
▁robber	-12.3755
▁thumb	-12.3755
▁touris	-12.3756
▁Dig	-12.3756
▁misunderstand	-12.3757
▁consol	-12.3758
▁Ice	-12.3759
▁eighteen	-12.376
▁accompany	-12.376
▁Ya	-12.376
▁weatherman	-12.3761
▁Movie	-12.3761
▁border	-12.3763
▁restriction	-12.3763
▁invention	-12.3765
▁surveyor	-12.3765
position	-12.3765
▁Kara	-12.3765
▁prediction	-12.3767
▁installment	-12.3771
▁nationalit	-12.3771
aturday	-12.3771
▁Swim	-12.3773
rain	-12.3773
▁temple	-12.3773
▁admitted	-12.3774
▁butterfly	-12.3775
force	-12.3776
eth	-12.3779
▁freezer	-12.3783
▁darker	-12.3785
▁Sp	-12.3786
ative	-12.3787
▁bamb	-12.3787
▁terrifi	-12.3788
▁blend	-12.3794
▁Theater	-12.3795
234	-12.3799
tible	-12.3799
sons	-12.3801
▁scream	-12.3802
unior	-12.3806
▁hail	-12.3811
▁sour	-12.3813
cover	-12.3815
▁Farm	-12.3817
▁Mean	-12.3817
▁enem	-12.382
▁phrase	-12.3823
punctu	-12.3826
entic	-12.3829
▁gardens	-12.383
▁absolute	-12.3832
▁outlook	-12.3838
▁administrati	-12.3838
ask	-12.3841
ged	-12.3846
xia	-12.3847
▁Employ	-12.3848
▁logic	-12.3856
▁rail	-12.3857
▁Eth	-12.3858
▁Ltd	-12.3859
▁communicat	-12.3859
▁consumption	-12.3863
▁Reb	-12.3867
▁Full	-12.3867
▁calculation	-12.388
▁cr	-12.3881
▁var	-12.389
balance	-12.389
▁Need	-12.3895
mpire	-12.3902
▁dr	-12.3905
pan	-12.3905
▁War	-12.3907
87	-12.3909
▁spice	-12.392
▁Trac	-12.392
bo	-12.392
▁beginners	-12.3921
really	-12.3925
oid	-12.3932
▁beverage	-12.3939
▁receiver	-12.3942
help	-12.3944
▁duplicate	-12.3952
▁compensate	-12.3954
▁fade	-12.3956
▁accumulate	-12.3959
van	-12.396
que	-12.3961
▁31	-12.3969
▁breasts	-12.3972
people	-12.3973
▁Ki	-12.3978
▁advertise	-12.3981
▁moisturize	-12.3987
▁curve	-12.3989
io	-12.399
▁tast	-12.3996
▁gott	-12.4004
76	-12.4006
100	-12.4007
▁Promis	-12.4007
▁cube	-12.401
65	-12.4022
▁Bos	-12.4024
▁skate	-12.4035
▁castle	-12.4037
▁basics	-12.4041
▁insight	-12.4044
▁hum	-12.4046
▁Christin	-12.4056
▁hip	-12.4067
ath	-12.407
▁Line	-12.4071
▁Classic	-12.4071
han	-12.4075
▁fence	-12.4078
ified	-12.4081
▁Rod	-12.4083
▁Pr	-12.4092
gic	-12.4101
ond	-12.4101
▁iP	-12.4102
▁Administrati	-12.4105
▁eighth	-12.4105
shop	-12.4113
32	-12.4114
▁Fall	-12.4116
▁Write	-12.4119
▁manufactur	-12.4124
hundred	-12.413
greement	-12.4138
▁chief	-12.4145
▁Hous	-12.4148
▁pond	-12.4159
ple	-12.4164
▁referr	-12.4164
service	-12.4177
See	-12.418
▁tee	-12.4189
▁partners	-12.4195
▁rack	-12.4202
ison	-12.4202
dication	-12.4206
▁nominat	-12.4211
▁Young	-12.4215
▁Bus	-12.4219
▁mig	-12.4234
▁coal	-12.4234
brother	-12.4238
▁heater	-12.4244
ho	-12.4257
j	-12.4258
avy	-12.4259
▁shin	-12.4259
pri	-12.4259
▁chil	-12.4266
▁exporter	-12.4267
ank	-12.4269
hila	-12.427
▁Nons	-12.4281
▁fr	-12.429
▁seed	-12.4297
▁matur	-12.4308
Beside	-12.4311
ports	-12.4312
▁argu	-12.4317
▁chequ	-12.4326
▁reconsider	-12.4327
▁kit	-12.4331
▁exceptional	-12.4333
▁baske	-12.4352
▁Start	-12.4355
▁Cor	-12.4355
nny	-12.4357
▁complet	-12.436
lie	-12.4367
▁Pat	-12.4386
rank	-12.439
▁hint	-12.4391
▁citizens	-12.4394
▁housekeep	-12.441
lin	-12.4416
88	-12.4423
▁demonstrat	-12.4428
runch	-12.4429
Anyway	-12.4432
▁Cha	-12.446
▁grip	-12.4461
sitter	-12.4463
much	-12.4467
lucky	-12.4472
pray	-12.4477
▁78	-12.4477
▁Fix	-12.4484
healthy	-12.4486
orrect	-12.4503
▁maint	-12.4507
rid	-12.451
▁Aw	-12.451
watch	-12.4515
woman	-12.4524
▁34	-12.4527
▁Han	-12.4529
▁Class	-12.4536
▁56	-12.4541
▁deta	-12.455
▁gu	-12.4556
aged	-12.4562
▁ya	-12.4586
arch	-12.4589
▁tackl	-12.4593
▁ugl	-12.4602
▁tap	-12.4607
love	-12.4609
▁Ga	-12.462
58	-12.4632
li	-12.4639
need	-12.464
zar	-12.4643
ark	-12.4644
▁runner	-12.4661
▁devote	-12.4663
meter	-12.4676
▁Gam	-12.4693
▁craft	-12.4697
▁Col	-12.4697
▁fe	-12.4703
▁retir	-12.4705
▁steame	-12.4742
conditioner	-12.4746
Isn	-12.4751
▁00	-12.4753
Baker	-12.4763
cha	-12.4768
arath	-12.4776
▁journal	-12.478
▁strap	-12.4784
▁tub	-12.4804
loves	-12.4806
manda	-12.4807
▁reduc	-12.4812
▁mat	-12.4825
▁broth	-12.4825
office	-12.4828
▁stall	-12.4835
▁Elvi	-12.4836
▁employe	-12.4843
▁Buck	-12.4844
▁div	-12.4847
▁festiv	-12.4849
change	-12.4851
▁favour	-12.4853
▁Egypt	-12.4853
▁Colorado	-12.4853
▁agricultur	-12.4853
▁Bachelor	-12.4853
▁Buddha	-12.4853
▁Melissa	-12.4853
▁Society	-12.4853
▁freckle	-12.4853
▁genuine	-12.4853
▁militar	-12.4853
▁Bottom	-12.4853
▁cheeseburger	-12.4853
▁swallow	-12.4853
▁eggplant	-12.4853
▁Admission	-12.4853
▁grandchildren	-12.4853
▁Commodit	-12.4853
▁Perrier	-12.4853
▁microphone	-12.4853
▁Krist	-12.4853
▁sneez	-12.4853
▁championship	-12.4853
▁Research	-12.4853
▁leaflet	-12.4854
▁Thousand	-12.4854
▁insult	-12.4854
▁innocen	-12.4854
▁columnist	-12.4854
▁fabric	-12.4854
▁layover	-12.4854
▁receptionist	-12.4854
▁compartment	-12.4854
▁Chuck	-12.4854
kward	-12.4855
▁riddle	-12.4855
▁bikini	-12.4855
▁hairstyle	-12.4856
▁clarify	-12.4856
▁Larry	-12.4856
▁Job	-12.4856
▁division	-12.4856
▁retail	-12.4857
▁Sixty	-12.4857
▁victor	-12.4857
▁recreation	-12.4858
▁Horn	-12.4858
▁escape	-12.4859
▁moderate	-12.4859
▁creature	-12.486
curricul	-12.486
▁policeman	-12.486
▁lap	-12.4861
▁Roger	-12.4861
▁1050	-12.4861
▁backward	-12.4861
▁beneficiary	-12.4861
▁butcher	-12.4861
▁jelly	-12.4861
▁teahouse	-12.4861
▁sweetie	-12.4861
▁Flower	-12.4862
▁jade	-12.4863
▁confess	-12.4863
▁limo	-12.4863
▁teleport	-12.4863
▁cycl	-12.4865
▁ambition	-12.4865
▁panda	-12.4865
▁Joanna	-12.4867
▁Egg	-12.4869
school	-12.4874
▁Abby	-12.4874
▁filter	-12.4875
▁repay	-12.4875
▁whisky	-12.4876
▁Join	-12.488
▁criteri	-12.488
ggie	-12.4881
▁refreshment	-12.4881
▁Pete	-12.4882
▁Nova	-12.4883
▁panty	-12.4885
mother	-12.4887
▁auth	-12.489
▁trunk	-12.4891
▁parade	-12.4891
▁decoration	-12.4891
▁Camp	-12.4892
power	-12.4893
rail	-12.4896
anger	-12.4899
▁Factor	-12.49
nmen	-12.4901
▁Ahh	-12.4905
▁lun	-12.4905
ations	-12.4907
▁Suzy	-12.4908
▁Fool	-12.4908
▁Di	-12.4909
▁scold	-12.4909
▁outrage	-12.4909
▁Luc	-12.4912
▁African	-12.4912
▁Ross	-12.4912
▁Beam	-12.4915
▁blurr	-12.4917
▁Hm	-12.4921
▁Tiana	-12.4921
▁Cel	-12.4924
▁thunderstorms	-12.4928
▁moisturizer	-12.493
season	-12.4939
BB	-12.4939
▁Head	-12.4942
13	-12.4948
▁evict	-12.4957
▁Macy	-12.4958
when	-12.4959
▁thrill	-12.4964
▁tenant	-12.4966
ixed	-12.4968
oney	-12.4973
▁coaster	-12.4976
▁sever	-12.4979
▁barrier	-12.4982
▁lantern	-12.4982
▁350	-12.4985
▁tapes	-12.4987
▁bumper	-12.4987
▁mate	-12.4987
▁Bi	-12.499
▁defense	-12.4992
▁Price	-12.4993
▁Name	-12.4995
ude	-12.4996
▁bore	-12.5003
▁Kun	-12.5007
▁bubble	-12.5013
▁styl	-12.5038
yon	-12.5039
tensi	-12.5047
ense	-12.5047
▁Count	-12.5053
▁sundae	-12.5056
ep	-12.5063
▁sw	-12.5066
▁exaggerat	-12.5074
tech	-12.5074
▁bless	-12.5078
▁smoothie	-12.508
lar	-12.5081
ahah	-12.5081
▁Moder	-12.5083
▁Com	-12.5087
▁Flo	-12.5089
▁adore	-12.5107
▁stat	-12.5114
▁ounce	-12.5114
illa	-12.5115
▁odd	-12.5119
▁convention	-12.5126
endant	-12.5126
ecently	-12.513
paste	-12.5132
▁institute	-12.5135
▁tackle	-12.5137
▁stead	-12.5138
▁Part	-12.5144
▁burst	-12.5152
▁debate	-12.5156
▁stunt	-12.5158
▁limits	-12.5167
dol	-12.517
si	-12.5176
▁sho	-12.5178
tte	-12.5182
Does	-12.5189
▁Arm	-12.5189
▁stimulat	-12.5193
Chinese	-12.5198
▁painter	-12.5205
urt	-12.5216
cks	-12.5218
▁1,	-12.5219
▁token	-12.522
▁Ever	-12.5228
ler	-12.5228
nda	-12.5235
▁convert	-12.5241
▁hats	-12.5243
rea	-12.5248
▁trimm	-12.5251
▁sat	-12.5254
▁expire	-12.5257
▁Step	-12.5283
▁kite	-12.5288
▁pint	-12.5292
▁Power	-12.5296
▁Bon	-12.5303
▁supp	-12.5311
▁Salar	-12.5313
met	-12.532
▁journalist	-12.5332
▁rac	-12.5334
▁pens	-12.5339
street	-12.5354
▁periodic	-12.5358
ification	-12.5361
▁Yo	-12.5366
▁ne	-12.538
ee	-12.5382
umm	-12.5383
▁Rand	-12.5386
city	-12.5401
▁Sch	-12.5409
sales	-12.541
rent	-12.5423
▁Comp	-12.5452
▁doc	-12.5459
▁worrie	-12.5467
late	-12.5471
▁Ph	-12.5473
▁Hur	-12.5483
non	-12.5485
▁exclud	-12.549
▁acknowledg	-12.5491
▁inspir	-12.5492
anxi	-12.5493
▁negotia	-12.5495
▁Var	-12.5506
▁News	-12.5517
▁compliments	-12.5523
liner	-12.5524
nut	-12.556
▁Writ	-12.5564
uce	-12.5568
▁mature	-12.5571
▁recycl	-12.5572
▁bare	-12.558
Sha	-12.5585
iles	-12.5587
alent	-12.5588
▁ste	-12.5607
▁coco	-12.5612
▁1.5	-12.5615
stile	-12.5619
ere	-12.5625
stract	-12.5625
▁3000	-12.5626
▁petro	-12.5627
ern	-12.5639
▁drain	-12.564
▁liar	-12.5644
cream	-12.5647
▁commit	-12.5651
▁Mor	-12.5656
storms	-12.5658
arry	-12.5659
ob	-12.5661
▁unlea	-12.5667
ji	-12.5682
ue	-12.5685
ebru	-12.5692
dia	-12.5692
▁Associat	-12.5695
pen	-12.5697
iz	-12.5698
oes	-12.5716
▁thi	-12.572
▁holder	-12.5727
▁Run	-12.5734
panc	-12.5735
▁Child	-12.5737
Go	-12.5759
▁Typ	-12.5771
ential	-12.5776
▁32	-12.579
inger	-12.5805
▁Joan	-12.5806
▁magnif	-12.5809
▁zip	-12.581
mph	-12.5812
▁TE	-12.5812
▁lakes	-12.5816
▁flip	-12.5827
six	-12.5836
ough	-12.5838
▁soil	-12.5839
▁participa	-12.5846
inch	-12.5847
Wang	-12.5858
ale	-12.5859
▁juic	-12.5859
▁graphic	-12.5861
lla	-12.5864
▁staring	-12.5873
▁Alan	-12.5887
markets	-12.5888
▁Learn	-12.5894
▁digest	-12.5895
should	-12.5897
tors	-12.5899
▁Craft	-12.5903
remium	-12.5908
Brown	-12.5918
flowers	-12.5921
atin	-12.5925
▁gallon	-12.5932
75	-12.5936
▁gradua	-12.5945
ued	-12.5947
mote	-12.5948
AD	-12.5956
▁160	-12.5957
▁requirement	-12.5957
▁instruction	-12.5962
Remember	-12.5966
▁temp	-12.5977
built	-12.5991
▁user	-12.5996
▁mailing	-12.5997
▁spac	-12.5997
capp	-12.6003
▁Seat	-12.6003
▁poke	-12.6003
▁Fox	-12.6008
▁Stewar	-12.6015
unctual	-12.603
▁boo	-12.6031
46	-12.6031
▁adventur	-12.6037
ives	-12.6047
▁amuse	-12.605
berry	-12.6078
▁shorts	-12.6082
storm	-12.6083
name	-12.6083
▁misunderst	-12.6085
tupid	-12.609
▁spr	-12.6096
polit	-12.6097
▁slid	-12.6098
▁arbitrat	-12.6099
▁Lili	-12.61
▁differ	-12.6103
▁Sleep	-12.6103
▁Advance	-12.6103
▁Textile	-12.6103
▁cylind	-12.6103
▁distinguish	-12.6103
▁fundamental	-12.6103
▁margarita	-12.6103
▁megapixel	-12.6103
▁opponent	-12.6103
▁spectacular	-12.6103
▁tremendous	-12.6103
▁Explor	-12.6103
▁absorb	-12.6103
▁aggressive	-12.6103
▁concrete	-12.6103
▁crystal	-12.6103
▁lasagn	-12.6103
▁resemble	-12.6103
▁obligat	-12.6103
▁broadcast	-12.6103
▁slogan	-12.6103
▁Marcia	-12.6103
▁inevitabl	-12.6103
▁commute	-12.6103
▁ornament	-12.6103
▁uniform	-12.6103
▁Orient	-12.6103
▁compuls	-12.6103
▁harass	-12.6103
▁distinctive	-12.6103
▁headquarter	-12.6104
▁Stephan	-12.6104
▁crossword	-12.6104
▁enrich	-12.6104
▁legislati	-12.6104
▁random	-12.6104
▁commodit	-12.6104
▁hurdle	-12.6104
▁compromise	-12.6104
▁rebound	-12.6104
▁politician	-12.6104
▁frag	-12.6104
▁eyebrow	-12.6104
▁bristle	-12.6104
▁chunk	-12.6104
▁fragrance	-12.6104
▁entitle	-12.6104
▁oyster	-12.6104
▁squid	-12.6105
di	-12.6105
▁aroma	-12.6105
▁Milan	-12.6105
▁element	-12.6105
▁verify	-12.6106
▁staple	-12.6106
▁Grace	-12.6106
▁superstitio	-12.6106
▁overcoat	-12.6107
▁Lester	-12.6107
coli	-12.6107
▁defender	-12.6107
▁sweetheart	-12.6107
▁superman	-12.6107
▁bookcase	-12.6108
▁criticism	-12.6108
▁protest	-12.6108
▁Baby	-12.6109
▁crab	-12.6109
▁Liang	-12.6109
▁sitcom	-12.6109
▁Director	-12.611
▁stopwatch	-12.611
▁inspector	-12.6111
▁tiger	-12.6111
bvious	-12.6112
▁stew	-12.6112
▁playground	-12.6115
▁adjustment	-12.6115
shrink	-12.6115
▁pianis	-12.6116
▁superb	-12.6118
Chen	-12.6119
▁specialist	-12.612
▁underestimat	-12.6121
▁drought	-12.6121
error	-12.6122
▁Father	-12.6124
peas	-12.6125
▁addiction	-12.6125
▁clause	-12.6132
▁sagg	-12.6135
hill	-12.6135
▁exploit	-12.6137
bee	-12.6138
▁spoon	-12.6138
▁mous	-12.6139
▁dumb	-12.6142
▁Tex	-12.6142
▁drown	-12.6144
▁passage	-12.6147
▁glu	-12.6148
▁chronic	-12.6149
third	-12.6149
▁stink	-12.6151
▁surrounding	-12.6154
▁crew	-12.6155
▁Tin	-12.6156
▁shopp	-12.6159
around	-12.6161
▁photographer	-12.6163
OK	-12.6164
▁react	-12.6168
▁specification	-12.6169
roject	-12.6174
paper	-12.6176
▁educate	-12.6178
▁widely	-12.6183
▁historic	-12.6184
▁700	-12.6185
▁entree	-12.6187
▁sorrow	-12.6187
▁trait	-12.6188
▁Ricky	-12.6194
▁Rice	-12.6195
▁cope	-12.6195
▁Scott	-12.62
▁vital	-12.6201
▁Ooo	-12.6202
▁impo	-12.6203
▁pizzas	-12.6203
▁struggle	-12.6204
▁Mick	-12.6213
▁Danc	-12.6215
▁marke	-12.6216
evelopment	-12.6225
▁deaf	-12.6227
▁partial	-12.6232
▁loo	-12.624
Come	-12.624
▁hocke	-12.6242
▁cons	-12.6243
▁Catholic	-12.6246
▁wrinkl	-12.6246
▁graceful	-12.6248
▁130	-12.6248
due	-12.6254
▁Customer	-12.6258
vast	-12.6258
rup	-12.6259
ools	-12.6261
▁Bean	-12.6261
▁starch	-12.6265
para	-12.6271
▁workman	-12.6272
▁Rocke	-12.6277
▁Ra	-12.6285
▁prospect	-12.6286
▁sandal	-12.6292
▁enable	-12.6295
▁Till	-12.6296
▁Tour	-12.6298
predict	-12.6298
▁Victor	-12.6298
▁Kind	-12.6299
▁farmer	-12.6303
▁enclose	-12.6305
▁mole	-12.6311
ired	-12.6315
▁48	-12.6317
▁ta	-12.632
▁violet	-12.6324
▁flush	-12.6326
▁Youth	-12.6327
sides	-12.6336
raham	-12.6338
port	-12.6341
icnic	-12.6353
▁Slow	-12.6354
▁tale	-12.6355
▁Positiv	-12.6356
▁Che	-12.6359
▁Chi	-12.6364
▁resist	-12.6379
▁Madr	-12.638
▁sala	-12.6394
make	-12.6398
song	-12.6399
ka	-12.6402
▁Br	-12.6402
▁Operat	-12.6405
▁Beaut	-12.6407
kind	-12.6408
▁Choos	-12.6411
▁canned	-12.644
▁terri	-12.6442
▁Pro	-12.6443
attle	-12.6446
▁equi	-12.6464
una	-12.6469
▁ch	-12.6469
▁assum	-12.6479
▁str	-12.6479
▁loop	-12.6481
▁gram	-12.6484
▁venue	-12.6487
▁transit	-12.649
▁Twi	-12.6492
▁smash	-12.6496
▁stack	-12.6506
▁Pana	-12.6513
▁scratche	-12.6523
crow	-12.6526
cked	-12.6531
▁Mi	-12.6541
▁memorize	-12.6546
▁landing	-12.6546
▁vani	-12.6548
worker	-12.6552
▁64	-12.6552
nds	-12.656
got	-12.6561
lthy	-12.6561
dated	-12.6566
thetic	-12.657
▁Mad	-12.6577
sight	-12.6578
▁despi	-12.658
ogie	-12.6585
aki	-12.6585
▁Pol	-12.6587
fill	-12.659
▁Jess	-12.6597
▁bla	-12.6601
▁Hon	-12.6603
only	-12.6603
▁savor	-12.6604
itz	-12.6607
▁Lock	-12.6608
▁clu	-12.6611
▁lifting	-12.6612
▁Capit	-12.6614
ends	-12.6618
ension	-12.6628
▁Cli	-12.6633
▁lion	-12.6637
▁Prince	-12.664
▁Parent	-12.6641
▁Swit	-12.6647
▁capab	-12.6652
hi	-12.6655
ttery	-12.6656
▁appreciat	-12.6656
▁bait	-12.6666
ith	-12.6675
▁fli	-12.6678
ending	-12.6684
dolph	-12.6691
▁Settle	-12.6692
▁recycle	-12.6694
▁curr	-12.6696
▁pi	-12.6696
irty	-12.6697
high	-12.6699
▁mass	-12.6702
rdon	-12.6707
ernet	-12.6714
gets	-12.6716
▁Guilin	-12.6717
▁consum	-12.6718
writing	-12.672
▁reasonabl	-12.6721
▁activ	-12.673
▁pursu	-12.6732
uses	-12.6734
sible	-12.6742
ves	-12.6744
▁discharge	-12.6748
▁olive	-12.6751
rink	-12.6762
▁Kit	-12.677
▁origin	-12.6776
Not	-12.6788
fry	-12.6792
hard	-12.6801
▁na	-12.6801
▁stunn	-12.6802
▁ke	-12.6806
▁skipp	-12.6816
▁fortunate	-12.6816
shopping	-12.6821
▁melt	-12.683
bra	-12.6832
▁wrappe	-12.6834
girl	-12.6838
▁rope	-12.6851
▁closet	-12.6853
▁divorc	-12.6862
resistan	-12.6863
nie	-12.6864
▁insur	-12.6869
heat	-12.6869
tick	-12.687
▁Fu	-12.6874
almon	-12.6879
ddy	-12.688
One	-12.6883
xhibition	-12.6886
▁idiom	-12.6891
▁pric	-12.6892
ump	-12.6894
▁unle	-12.6897
▁Home	-12.6902
▁Near	-12.6903
▁requir	-12.6904
ideo	-12.6911
26	-12.6916
bins	-12.6917
▁Medica	-12.6918
▁notic	-12.6922
▁Unle	-12.6942
▁typi	-12.6947
▁37	-12.695
som	-12.6959
▁restore	-12.6962
YO	-12.6963
Anything	-12.6965
then	-12.6969
▁Fe	-12.6972
▁char	-12.6972
▁Lan	-12.6978
star	-12.6978
ast	-12.6981
▁Rec	-12.6988
▁fur	-12.6994
▁impose	-12.6997
▁bang	-12.7005
▁lean	-12.7006
key	-12.7016
▁Bas	-12.7038
catch	-12.7039
ingda	-12.7043
▁ris	-12.7048
▁blonde	-12.7056
▁worm	-12.7057
▁reache	-12.7066
▁equip	-12.7067
Sometime	-12.7069
▁tracks	-12.7069
▁stylis	-12.7079
tch	-12.7085
▁Cur	-12.7091
▁Down	-12.7096
lu	-12.7098
▁bin	-12.7099
▁admir	-12.7099
kespe	-12.7104
▁soci	-12.7105
bury	-12.7114
▁pole	-12.7121
pad	-12.7136
▁Mumm	-12.7142
▁hopeful	-12.7142
▁Pear	-12.7176
▁profi	-12.719
▁Pan	-12.7192
▁dia	-12.7194
speaking	-12.7196
▁Stat	-12.7201
▁Jenni	-12.7202
▁pit	-12.7202
urd	-12.7208
ove	-12.7214
▁sci	-12.7215
tation	-12.7216
▁Suit	-12.7219
▁Ave	-12.7219
rical	-12.722
CR	-12.7233
▁Gro	-12.7235
▁necess	-12.7245
books	-12.7247
erial	-12.7247
▁ag	-12.7249
▁Edi	-12.7259
anna	-12.7259
assport	-12.7262
ned	-12.7265
▁tear	-12.7277
▁nu	-12.7281
▁Ed	-12.7283
▁Fed	-12.7285
▁Lesl	-12.7286
▁Fran	-12.7287
▁syn	-12.7295
▁deli	-12.7298
ww	-12.7298
hong	-12.7299
ardon	-12.7299
▁franc	-12.7301
▁PR	-12.7301
nk	-12.7306
bet	-12.7315
job	-12.7319
▁grave	-12.7321
driver	-12.7323
▁crow	-12.7326
▁scare	-12.7345
▁drip	-12.7351
▁termina	-12.7352
▁Hot	-12.7355
▁troubl	-12.7361
ran	-12.7361
▁82	-12.7376
acle	-12.739
▁Yog	-12.7396
▁advanc	-12.7399
lt	-12.7403
iel	-12.7414
▁85	-12.7415
▁slide	-12.742
ailed	-12.7424
kers	-12.7431
▁Asse	-12.7442
▁lips	-12.745
▁Log	-12.745
ration	-12.7475
▁politic	-12.7479
▁greater	-12.748
▁snowm	-12.7482
mitted	-12.7483
graphic	-12.7485
sta	-12.7488
▁Hamburg	-12.7494
onto	-12.7501
▁Northw	-12.7502
▁mug	-12.751
▁India	-12.7512
ngqi	-12.7515
▁Dy	-12.7516
▁zo	-12.7516
▁princip	-12.7519
eclaration	-12.7523
▁distract	-12.7525
cou	-12.7526
▁tray	-12.7527
rench	-12.7527
issue	-12.7529
▁acquaint	-12.753
▁scholar	-12.7532
▁Hop	-12.7532
▁Ecuador	-12.7532
▁Inspection	-12.7532
▁Murphy	-12.7532
▁antibiotic	-12.7532
▁aquarium	-12.7532
▁attempt	-12.7532
▁blockbuster	-12.7532
▁citrus	-12.7532
▁enormous	-12.7532
▁limousine	-12.7532
▁microwave	-12.7532
▁pronounce	-12.7532
▁pyramid	-12.7532
▁sprinkle	-12.7532
▁squirrel	-12.7532
▁overwhelm	-12.7532
▁painkillers	-12.7532
▁tournament	-12.7532
▁Program	-12.7532
▁kebab	-12.7532
▁millionaire	-12.7532
▁concession	-12.7532
▁unreliable	-12.7532
▁Diane	-12.7532
▁Morris	-12.7532
▁disconnect	-12.7532
▁intellect	-12.7532
▁sunbath	-12.7532
▁Vivi	-12.7532
▁lizard	-12.7532
▁nineteen	-12.7532
▁default	-12.7532
▁Treasur	-12.7532
▁gesture	-12.7532
▁skateboard	-12.7532
▁redeem	-12.7532
▁valley	-12.7532
▁Large	-12.7532
▁autograph	-12.7532
▁Edward	-12.7532
▁seventeen	-12.7533
▁extensive	-12.7533
▁Third	-12.7533
▁crisis	-12.7533
▁leopard	-12.7533
▁Puritan	-12.7533
▁overflow	-12.7533
▁biolog	-12.7533
▁bomb	-12.7533
▁Bryan	-12.7533
▁Afterward	-12.7533
▁Seventy	-12.7533
▁Short	-12.7534
▁shelter	-12.7534
▁Double	-12.7534
▁buzz	-12.7534
▁cuff	-12.7534
▁hammer	-12.7534
▁unload	-12.7534
▁hostess	-12.7535
▁inspiration	-12.7535
▁Panda	-12.7535
▁Folk	-12.7535
▁wiggl	-12.7536
▁immigrant	-12.7536
▁bounce	-12.7536
▁Currenc	-12.7536
▁sector	-12.7536
scope	-12.7537
▁Coast	-12.7537
▁Assistant	-12.7537
▁inherit	-12.7537
▁musician	-12.7538
White	-12.7539
▁billboard	-12.754
▁resort	-12.754
▁Round	-12.7541
▁medic	-12.7541
sk	-12.7541
▁grammar	-12.7542
▁confidential	-12.7542
▁bedside	-12.7542
▁accomplishment	-12.7543
▁accessories	-12.7544
▁pullover	-12.7545
▁balloon	-12.7545
▁damp	-12.7546
pin	-12.7546
▁Hugh	-12.7547
▁Atlant	-12.7547
▁berth	-12.755
▁NO	-12.7551
▁idol	-12.7551
▁institution	-12.7555
▁Consult	-12.7556
▁Excel	-12.7557
cular	-12.7557
em	-12.7559
▁popularity	-12.7559
▁Josh	-12.7563
▁Depend	-12.7563
▁inspire	-12.7563
▁Mason	-12.7563
▁Real	-12.7564
▁compose	-12.7566
▁Tram	-12.7567
lips	-12.7568
aring	-12.757
▁advancement	-12.7571
▁spi	-12.7571
▁boast	-12.7572
▁offended	-12.7573
▁brew	-12.7578
▁Face	-12.7581
▁cram	-12.7585
▁promot	-12.7585
▁Drink	-12.7588
▁Vie	-12.7591
▁deduction	-12.7599
▁grav	-12.7599
thanks	-12.76
▁3.	-12.7601
Green	-12.7603
nuts	-12.7606
ripped	-12.7607
▁Nev	-12.7607
▁Cloth	-12.7609
Every	-12.761
bbie	-12.7611
▁overlook	-12.7614
▁Smile	-12.7615
elphi	-12.7616
bike	-12.7617
▁multipl	-12.7617
▁activate	-12.7618
▁grind	-12.7623
▁BA	-12.7623
▁rotte	-12.7624
tawa	-12.7625
▁Mind	-12.7625
sycholog	-12.7628
sed	-12.763
▁Bobb	-12.7633
▁ob	-12.7634
▁descend	-12.7635
▁twenties	-12.7636
▁Find	-12.7637
▁analyze	-12.7641
▁tr	-12.7642
aller	-12.765
▁harmon	-12.7654
roof	-12.7656
evil	-12.7659
▁timetable	-12.7665
treat	-12.767
▁maturi	-12.7673
▁Ticket	-12.7673
▁recovery	-12.7674
▁leap	-12.7675
nest	-12.7687
because	-12.7688
graph	-12.7695
set	-12.7697
▁Rain	-12.7699
▁belief	-12.7703
▁custo	-12.7703
▁buff	-12.7704
▁Wal	-12.7709
▁server	-12.7713
▁bond	-12.7714
▁Compare	-12.7716
▁Wasn	-12.7717
▁inf	-12.7718
asha	-12.7723
▁minorit	-12.7723
Nic	-12.773
▁container	-12.7733
▁investigat	-12.7738
▁companion	-12.7739
▁glo	-12.7752
run	-12.7759
ester	-12.7762
▁occurr	-12.7771
▁Sandra	-12.7779
▁cure	-12.7781
▁secrets	-12.7785
erty	-12.7792
▁57	-12.78
creation	-12.7801
▁corr	-12.7802
▁changeable	-12.7804
park	-12.7804
jo	-12.781
▁gear	-12.7825
▁almond	-12.7831
▁equiv	-12.7834
▁desir	-12.7839
▁har	-12.7841
▁Anni	-12.785
East	-12.7863
▁gin	-12.7866
▁authorize	-12.7868
LA	-12.7871
▁Financi	-12.7881
jection	-12.7884
three	-12.7885
aj	-12.7885
▁evaluat	-12.7888
▁commut	-12.7888
aptain	-12.7899
▁sen	-12.79
▁tariff	-12.7901
▁aw	-12.7913
▁mar	-12.7917
▁Davis	-12.7918
▁spy	-12.792
▁86	-12.7922
▁weekday	-12.7932
weather	-12.7932
▁sle	-12.794
dge	-12.7941
entral	-12.7943
collar	-12.7944
▁Academ	-12.7944
▁Exercise	-12.7946
unrise	-12.7947
rida	-12.795
818	-12.7955
▁govern	-12.7956
ureau	-12.7957
▁peach	-12.7964
▁pigs	-12.7966
▁persuade	-12.7971
reverse	-12.7973
into	-12.7983
istrust	-12.7986
▁vice	-12.7993
stroke	-12.7999
nance	-12.8004
▁Tho	-12.8008
▁bl	-12.8011
groom	-12.8017
▁32.	-12.8018
errible	-12.8025
tender	-12.8025
▁salesm	-12.8025
cultur	-12.8029
emi	-12.8033
days	-12.8034
▁itch	-12.8038
word	-12.8038
▁Kob	-12.8044
▁Richt	-12.8053
▁42	-12.8055
English	-12.8057
▁certifi	-12.8059
▁Gl	-12.806
ull	-12.806
▁settl	-12.806
lation	-12.8066
nugg	-12.807
stop	-12.8078
ggle	-12.8083
ossibl	-12.8085
has	-12.8087
16	-12.8087
▁injuri	-12.8089
MS	-12.8095
price	-12.8098
phobia	-12.8112
▁associate	-12.8116
elfish	-12.8125
eddy	-12.8131
▁Maca	-12.8139
gle	-12.8165
▁Per	-12.8175
▁Trans	-12.8179
▁lett	-12.8183
hole	-12.8184
▁Dori	-12.8186
tistic	-12.8195
ken	-12.8199
lways	-12.8207
shot	-12.8211
siz	-12.8214
▁acu	-12.8215
▁num	-12.8218
bus	-12.822
His	-12.822
dez	-12.8227
▁Ge	-12.8233
▁robe	-12.824
▁redo	-12.8256
pay	-12.8262
priced	-12.8268
▁Fast	-12.8274
▁Mona	-12.8274
▁launch	-12.8277
▁appl	-12.8277
▁Leg	-12.8283
▁cooperat	-12.8285
neration	-12.8287
▁Song	-12.8298
▁Natural	-12.8307
rows	-12.8313
▁Fil	-12.8314
▁participat	-12.8326
wife	-12.8329
▁325	-12.8333
auce	-12.8335
▁Gett	-12.8338
rally	-12.8346
▁prior	-12.8346
▁divid	-12.8347
▁indicate	-12.8357
ound	-12.8362
Right	-12.8363
▁submit	-12.8363
ainly	-12.8364
plen	-12.837
▁atten	-12.8374
bor	-12.8382
▁launche	-12.8387
string	-12.839
cam	-12.8392
hew	-12.8395
▁Jin	-12.8397
istica	-12.8397
▁techno	-12.8399
▁cabl	-12.8406
iffe	-12.8407
tta	-12.8413
▁congest	-12.8413
vern	-12.8423
▁goof	-12.8439
ET	-12.844
esk	-12.8455
letter	-12.8457
ages	-12.8463
tres	-12.8467
▁convinc	-12.847
clean	-12.848
▁relaxe	-12.8486
Forest	-12.8488
▁Hunt	-12.8488
▁robb	-12.8489
ets	-12.8511
▁fal	-12.8512
bby	-12.8521
▁rec	-12.8522
▁giv	-12.8523
ilities	-12.8527
As	-12.8536
ski	-12.8546
tical	-12.8551
cautio	-12.8552
ords	-12.8556
▁6.	-12.8559
▁stra	-12.8564
▁comp	-12.8564
ommercial	-12.8572
▁Char	-12.8572
angle	-12.8584
▁Je	-12.859
▁reserv	-12.8594
▁chi	-12.8597
lves	-12.8604
anc	-12.8605
▁cuddl	-12.8609
▁conta	-12.8621
eeing	-12.8623
burn	-12.8626
▁watche	-12.8626
886	-12.8635
▁crashe	-12.8635
lea	-12.864
▁pine	-12.8643
▁gag	-12.8643
▁ve	-12.8647
ierce	-12.8647
bell	-12.8657
▁Fl	-12.8662
ef	-12.8666
app	-12.8671
roll	-12.8691
mmy	-12.8693
1234	-12.87
ell	-12.8707
▁Conne	-12.872
7-	-12.8729
▁cave	-12.8729
doubted	-12.8733
▁vine	-12.8734
▁sang	-12.8742
▁Shut	-12.8743
▁sca	-12.8748
▁Brus	-12.8748
zer	-12.8761
arily	-12.8763
cola	-12.8769
ips	-12.8776
ubble	-12.8776
tin	-12.8782
▁spaces	-12.8784
za	-12.8786
▁bra	-12.8786
▁whisk	-12.8796
oring	-12.8803
▁Ay	-12.8809
could	-12.8822
▁overcharge	-12.8827
bi	-12.883
cket	-12.8834
▁fro	-12.8835
ospital	-12.8837
▁Lou	-12.8844
ection	-12.8848
sity	-12.8852
▁genero	-12.8858
ots	-12.8858
▁radiat	-12.8862
aden	-12.8871
ona	-12.8877
lake	-12.8878
▁gl	-12.8881
▁rely	-12.8883
chang	-12.8894
MO	-12.8909
▁importer	-12.8912
▁rap	-12.8929
▁celebrit	-12.8932
▁Week	-12.8933
▁Stand	-12.8934
▁medi	-12.8935
▁tech	-12.8949
parents	-12.8951
▁Coug	-12.8953
▁Gi	-12.896
Of	-12.896
▁bubbl	-12.8962
▁Lib	-12.8964
ership	-12.8964
pecial	-12.8965
vity	-12.8967
▁Pas	-12.897
▁Dun	-12.8973
▁stab	-12.8974
ited	-12.8974
▁hearts	-12.8981
▁Sho	-12.8984
ace	-12.8987
ome	-12.8988
las	-12.9018
accept	-12.9022
Tell	-12.9023
▁oat	-12.9025
▁voucher	-12.9028
tired	-12.9031
obile	-12.9032
▁competitor	-12.9033
ians	-12.9036
▁carrot	-12.9037
res	-12.904
lor	-12.9041
▁Fa	-12.9045
▁Mel	-12.9048
its	-12.905
▁Sports	-12.9054
▁ri	-12.9055
worth	-12.9069
▁investigate	-12.9071
▁Emba	-12.9072
▁improv	-12.9084
wed	-12.9089
ender	-12.9091
▁boxing	-12.9092
start	-12.9093
▁crav	-12.9103
ortunate	-12.9109
thank	-12.9125
▁welcom	-12.9128
▁surround	-12.9131
▁um	-12.9131
▁Secret	-12.9134
through	-12.9136
igator	-12.9154
▁parlo	-12.9156
▁Cu	-12.9161
▁lav	-12.9161
▁squa	-12.9165
▁greet	-12.9166
▁kille	-12.9174
talking	-12.9175
70	-12.9178
dry	-12.9179
▁renovat	-12.9183
▁Custom	-12.9184
People	-12.9184
tones	-12.9185
ger	-12.9187
▁enlarge	-12.9191
▁pilgrim	-12.9196
▁cushion	-12.9198
▁villa	-12.9198
▁Ultra	-12.9198
▁bridesmaid	-12.9198
▁burrito	-12.9198
▁cucumber	-12.9198
▁detergent	-12.9198
▁excursion	-12.9198
▁mosquito	-12.9198
▁prohibit	-12.9198
▁scooter	-12.9198
▁transcript	-12.9198
▁Conrad	-12.9199
▁incentive	-12.9199
▁slurp	-12.9199
▁Church	-12.9199
▁Consider	-12.9199
▁Automobile	-12.9199
▁Melbou	-12.9199
▁dissert	-12.9199
▁comparison	-12.9199
▁proceed	-12.9199
▁Sophi	-12.9199
▁subtitles	-12.9199
▁Picture	-12.9199
▁comparative	-12.9199
Tunes	-12.9199
▁cottage	-12.9199
▁harvest	-12.9199
▁sandcastle	-12.9199
▁Laptop	-12.9199
▁crawl	-12.9199
▁landmark	-12.9199
▁Football	-12.9199
▁seashell	-12.9199
▁Fresh	-12.9199
▁trademark	-12.9199
▁foxtrot	-12.9199
▁volcan	-12.9199
▁Middle	-12.9199
RMB	-12.9199
▁eyelid	-12.9199
▁defence	-12.9199
▁prevail	-12.9199
▁abortion	-12.9199
▁cherish	-12.9199
▁vendor	-12.9199
▁illustrat	-12.9199
▁persist	-12.9199
▁biscuit	-12.9199
▁genetic	-12.9199
▁pumpkin	-12.9199
▁clutch	-12.9199
▁barrel	-12.9199
▁prettier	-12.9199
▁nauseous	-12.9199
2477	-12.9199
▁Kiang	-12.9199
▁airplane	-12.9199
▁undergraduate	-12.9199
▁Dickens	-12.9199
▁caddie	-12.92
▁Junior	-12.92
esteem	-12.92
▁Phillip	-12.92
▁Trev	-12.92
▁counterpart	-12.92
▁device	-12.92
▁Left	-12.92
▁McC	-12.92
▁alphabetical	-12.9201
▁Typical	-12.9201
▁masterpiece	-12.9201
▁fragran	-12.9201
▁Milk	-12.9201
▁possession	-12.9201
▁disability	-12.9201
▁naive	-12.9202
▁Concert	-12.9202
▁Bowl	-12.9202
▁pilgrimage	-12.9202
▁muslim	-12.9202
▁513	-12.9202
▁creep	-12.9203
▁KF	-12.9203
▁fortnight	-12.9203
▁command	-12.9203
▁Owen	-12.9204
▁compress	-12.9204
▁schoolmate	-12.9205
▁Minne	-12.9205
zzi	-12.9205
▁Lord	-12.9205
▁Vicky	-12.9205
▁observ	-12.9206
holic	-12.9206
ritish	-12.9207
▁dustbi	-12.9207
iguan	-12.9208
▁traged	-12.9208
▁entail	-12.9208
▁blush	-12.9209
▁Freez	-12.9209
order	-12.921
dding	-12.921
▁Mango	-12.921
league	-12.921
▁Lilian	-12.921
▁outdated	-12.9211
TS	-12.9211
▁Nature	-12.9211
▁textile	-12.9211
▁Ea	-12.9212
▁Apartment	-12.9212
▁Lamb	-12.9213
▁premi	-12.9213
▁disqualif	-12.9213
▁Mitch	-12.9215
▁amicabl	-12.9215
▁servant	-12.9215
▁pudding	-12.9215
▁litter	-12.9216
▁Labor	-12.9216
▁repaint	-12.9217
▁Carton	-12.9217
▁Million	-12.9217
▁Harris	-12.9217
▁stub	-12.9218
▁decisi	-12.9219
▁Fly	-12.9223
▁reaction	-12.9224
▁legend	-12.9225
ila	-12.9225
pparent	-12.9225
▁restock	-12.9226
▁housekeeper	-12.9227
▁Penny	-12.9229
▁disciplin	-12.9229
▁disabl	-12.9229
▁emission	-12.9232
hua	-12.9234
▁sucker	-12.9235
dental	-12.9239
▁quota	-12.9241
▁CB	-12.9242
▁incense	-12.9243
▁Moon	-12.9246
ette	-12.9247
▁Cars	-12.925
▁fox	-12.925
▁scor	-12.9251
▁coincide	-12.9252
▁guild	-12.9254
▁Barc	-12.9256
▁unlike	-12.9256
page	-12.9257
▁richer	-12.9257
▁consistent	-12.9259
▁66	-12.9259
▁Claus	-12.9262
▁wimp	-12.9264
▁matern	-12.9266
▁Carre	-12.9266
rop	-12.9269
▁motivation	-12.9269
▁Fried	-12.9272
▁Jog	-12.9274
▁Sta	-12.9278
▁interfer	-12.9286
▁shark	-12.9287
▁loa	-12.9289
timate	-12.9291
lag	-12.9291
echnolog	-12.9293
▁Memori	-12.9297
▁Bond	-12.9298
▁canyon	-12.93
▁Close	-12.9302
▁fog	-12.9302
ingdom	-12.9303
▁lowe	-12.9311
ndustry	-12.9315
▁extract	-12.9315
▁nick	-12.9316
▁Nige	-12.9319
▁joyful	-12.9323
▁Reader	-12.9324
▁Us	-12.9325
apsule	-12.9326
125	-12.9326
▁Roll	-12.9327
esume	-12.933
bility	-12.9331
▁pier	-12.9337
▁1.	-12.934
81	-12.9346
ggis	-12.9347
▁hus	-12.9349
▁pisto	-12.935
▁Penn	-12.9351
▁Bali	-12.9353
irin	-12.9357
▁Politic	-12.9359
▁Team	-12.9361
building	-12.9362
eenager	-12.9363
▁kara	-12.9363
▁dep	-12.9367
fall	-12.9371
darin	-12.9371
▁summar	-12.9371
▁vouchers	-12.9375
▁por	-12.9384
▁sword	-12.9387
▁Action	-12.9392
▁trail	-12.9396
oval	-12.94
▁trap	-12.9401
form	-12.9404
▁6,000	-12.9405
▁debt	-12.9407
▁maga	-12.9408
▁Plenty	-12.9411
▁migrat	-12.9411
▁mi	-12.9417
azing	-12.9424
06	-12.9425
▁straighten	-12.9435
▁Dais	-12.9435
▁pregnanc	-12.9436
shoes	-12.9436
▁gallons	-12.9437
▁cou	-12.9438
Everyone	-12.9442
▁chow	-12.9443
▁cargo	-12.9455
▁Aid	-12.9465
▁dam	-12.9469
▁Chill	-12.9473
▁cheape	-12.9476
unting	-12.9479
Since	-12.9482
▁Phila	-12.9483
enient	-12.9484
oodbye	-12.9487
01	-12.9489
bad	-12.9489
▁importan	-12.949
▁Rud	-12.9493
▁lea	-12.9495
oud	-12.9499
eller	-12.95
lesh	-12.9501
orn	-12.9501
sban	-12.9504
player	-12.9515
Neal	-12.9519
Yeah	-12.9523
▁overhear	-12.9524
▁supporti	-12.9525
thma	-12.9534
▁attain	-12.9536
▁Divide	-12.9542
▁shipments	-12.9553
omeone	-12.9554
ula	-12.9556
▁geek	-12.9557
bottom	-12.9557
ronic	-12.9563
▁Guid	-12.9566
Say	-12.9568
Keep	-12.9569
sit	-12.9573
akin	-12.9579
oc	-12.958
▁Greenw	-12.9581
val	-12.9583
▁whiske	-12.9587
timid	-12.9594
ita	-12.9598
ign	-12.9601
arring	-12.9611
▁tan	-12.9611
▁distribut	-12.9612
▁Isabell	-12.9615
▁Table	-12.9617
▁discom	-12.9617
▁moral	-12.9626
valent	-12.9627
▁coll	-12.9631
▁execute	-12.9639
▁vocation	-12.9639
▁tow	-12.9646
▁Den	-12.9646
▁CA	-12.965
▁gig	-12.9657
kg	-12.9672
▁bass	-12.9681
▁Lim	-12.969
gnific	-12.9693
34	-12.9693
hile	-12.9696
▁specie	-12.9701
▁yell	-12.971
isle	-12.9716
▁sur	-12.9716
TC	-12.9717
▁Emm	-12.9718
othing	-12.9719
▁delicates	-12.9719
audi	-12.9721
▁Cran	-12.9722
▁calli	-12.9725
urfing	-12.9727
door	-12.9729
ole	-12.9731
lower	-12.9733
▁Gar	-12.9736
rics	-12.9738
▁cutle	-12.974
▁follower	-12.9753
▁servic	-12.9756
stress	-12.9764
ilton	-12.9771
ngko	-12.9784
erior	-12.9786
hes	-12.9789
byte	-12.9794
▁Pres	-12.9801
ai	-12.9802
▁distribute	-12.9813
cle	-12.9813
▁ro	-12.9813
▁chain	-12.9817
▁establishe	-12.982
tract	-12.9824
▁tur	-12.9826
rom	-12.9831
burg	-12.9832
▁bik	-12.9832
ft	-12.9834
vitamin	-12.9835
▁mush	-12.9839
▁Total	-12.9845
▁mysteri	-12.9851
angr	-12.9853
▁cater	-12.9867
sick	-12.9867
arrot	-12.9875
▁lov	-12.9876
▁cu	-12.9877
▁fel	-12.9885
locker	-12.9887
pstick	-12.9888
lk	-12.9889
Jone	-12.9895
appy	-12.9897
eo	-12.9898
▁Pale	-12.9901
ommunication	-12.9906
erry	-12.9911
num	-12.9916
▁mayor	-12.9921
rms	-12.9928
▁bow	-12.9933
seller	-12.9937
▁wo	-12.994
yahoo	-12.9949
▁citizen	-12.9951
teri	-12.9953
▁dice	-12.9953
may	-12.9953
▁Tyle	-12.9953
▁Coll	-12.9955
▁ignit	-12.9959
▁sock	-12.9962
clips	-12.9967
▁Lab	-12.9971
mes	-12.9973
▁Bla	-12.998
▁brains	-13
study	-13.0002
oking	-13.0002
▁coworker	-13.0004
china	-13.0012
▁slam	-13.0013
▁gon	-13.0014
▁Hear	-13.0016
▁wel	-13.002
▁fasten	-13.0026
▁Liv	-13.003
ik	-13.0038
cession	-13.004
▁plea	-13.0048
▁quot	-13.0053
nica	-13.0056
▁DE	-13.0063
ward	-13.0066
▁cheate	-13.0066
▁Friend	-13.0067
inspir	-13.007
▁priced	-13.0075
▁Whe	-13.0079
▁norm	-13.0083
▁Bull	-13.0084
ectar	-13.0091
emple	-13.0092
rch	-13.0096
▁LP	-13.0104
rands	-13.0105
something	-13.0118
▁blogg	-13.0127
▁pursue	-13.013
uit	-13.013
▁mixe	-13.0131
walk	-13.0142
▁amaz	-13.015
mer	-13.0153
DA	-13.0157
pass	-13.0159
▁pu	-13.0162
▁consume	-13.0163
▁jack	-13.0165
▁wis	-13.0167
▁locke	-13.0168
▁dedicate	-13.017
▁Driv	-13.0172
▁tang	-13.018
▁Gorge	-13.0182
▁placement	-13.0185
anche	-13.0191
▁Peters	-13.0193
▁Ow	-13.0194
▁Bett	-13.0206
▁tighten	-13.0211
still	-13.0228
sometime	-13.0231
icker	-13.0236
▁bri	-13.0239
ug	-13.024
▁spe	-13.0242
▁donation	-13.0251
MB	-13.0258
▁trop	-13.0265
▁Rubi	-13.0269
chi	-13.0282
flower	-13.0291
du	-13.0294
pers	-13.0304
▁revi	-13.0305
▁interna	-13.0306
▁disc	-13.0309
▁Lea	-13.032
▁Del	-13.0325
ush	-13.0332
▁penni	-13.0345
bean	-13.0345
nning	-13.0345
▁Har	-13.0347
won	-13.035
▁Rent	-13.0352
▁Liz	-13.0353
gage	-13.0358
▁sparkl	-13.0358
ummer	-13.0369
nam	-13.0374
vin	-13.0387
color	-13.0391
▁Gu	-13.0393
To	-13.0394
utside	-13.0399
rhaps	-13.0407
▁Sang	-13.0407
▁infla	-13.0414
▁Unc	-13.0415
onnecti	-13.0417
▁resumes	-13.042
.45	-13.0424
gur	-13.0432
ime	-13.0433
▁hurri	-13.0434
▁Gala	-13.0443
Our	-13.0445
▁recessi	-13.0451
ea	-13.046
ront	-13.0463
▁Bark	-13.0466
formal	-13.0467
erg	-13.0473
gon	-13.0475
▁Spri	-13.0481
▁injur	-13.0487
▁partly	-13.0488
sign	-13.0496
▁Pet	-13.0506
▁hideou	-13.0524
married	-13.0533
▁wil	-13.0543
mm	-13.0552
Al	-13.0554
joy	-13.0568
ization	-13.0579
▁shou	-13.0583
▁hotte	-13.0585
▁Deli	-13.0585
▁recorder	-13.0586
▁Frankl	-13.0613
▁Dong	-13.0616
mba	-13.0616
file	-13.0624
▁imagina	-13.0635
greed	-13.0641
▁tha	-13.0672
▁overdo	-13.0675
cast	-13.0677
rap	-13.0682
▁kno	-13.0685
▁observe	-13.0686
▁apologi	-13.0693
istrict	-13.0694
▁Tsing	-13.0697
ohn	-13.0722
tandard	-13.0729
▁submitt	-13.0732
pal	-13.0733
▁dispatch	-13.0766
▁metro	-13.0782
first	-13.0782
ivity	-13.0786
▁giga	-13.0787
stitute	-13.0802
tri	-13.0805
▁grea	-13.0811
▁stopp	-13.0815
things	-13.0825
ooking	-13.0829
Th	-13.083
▁Free	-13.0846
▁Nik	-13.0856
▁51	-13.086
▁contribut	-13.0862
ngs	-13.0865
▁presen	-13.0871
different	-13.0873
atter	-13.0874
bone	-13.088
atic	-13.0889
▁coinciden	-13.0892
tomorrow	-13.0892
tics	-13.09
jin	-13.0905
Miss	-13.0907
▁abs	-13.0919
company	-13.0926
act	-13.0931
▁LC	-13.0937
fit	-13.094
ez	-13.0944
gus	-13.0945
him	-13.0948
ones	-13.0954
▁52	-13.0955
nbelievabl	-13.096
ols	-13.096
▁360	-13.0964
lance	-13.0976
▁Age	-13.0987
xt	-13.099
▁cage	-13.1005
▁sens	-13.1007
unday	-13.1014
▁champion	-13.102
tha	-13.1021
▁wang	-13.1023
tely	-13.1026
game	-13.1028
17	-13.1035
clusive	-13.1037
▁queu	-13.1047
dvertis	-13.1049
had	-13.1051
▁ent	-13.1058
▁merchan	-13.1059
CL	-13.106
erlin	-13.106
▁4.5	-13.1074
▁sl	-13.1077
rton	-13.1087
Alright	-13.1092
▁lin	-13.1095
else	-13.1099
▁enthusias	-13.1104
▁Civil	-13.1106
▁announc	-13.1107
sale	-13.1111
list	-13.1114
bring	-13.1117
▁Sep	-13.1124
custome	-13.1129
ublic	-13.1129
▁750	-13.1129
card	-13.1131
84	-13.1132
▁excel	-13.1135
▁crop	-13.1142
▁profession	-13.1143
▁Gas	-13.1147
erald	-13.1148
bodie	-13.1152
▁cran	-13.1154
▁approv	-13.1159
estic	-13.116
▁discipline	-13.1162
amily	-13.1162
ashion	-13.1175
▁heroin	-13.1185
quan	-13.1191
▁toleran	-13.1191
▁recogni	-13.1193
▁counsel	-13.1195
▁Thirteen	-13.1198
▁unrealistic	-13.1198
▁Adviser	-13.1198
▁Aquarium	-13.1198
▁Chocolate	-13.1198
▁Electronic	-13.1198
▁Enterprise	-13.1198
▁Pyramid	-13.1198
▁expenditure	-13.1198
▁halogen	-13.1198
▁horizon	-13.1198
▁memorandum	-13.1198
▁pedicure	-13.1198
▁thermometer	-13.1198
▁thursday	-13.1198
▁Twelve	-13.1199
▁indispens	-13.1199
▁samosa	-13.1199
▁stubborn	-13.1199
▁xerox	-13.1199
▁Dilbert	-13.1199
▁Kentucky	-13.1199
▁Strike	-13.1199
▁pessimist	-13.1199
▁Pepsi	-13.1199
▁Fuji	-13.1199
▁Vitamin	-13.1199
▁indigen	-13.1199
▁milkshake	-13.1199
▁immun	-13.1199
▁moustache	-13.1199
ROM	-13.1199
▁brooch	-13.1199
▁twirls	-13.1199
▁Gucci	-13.1199
▁crayon	-13.1199
▁terrorist	-13.1199
▁Arnold	-13.1199
▁bulb	-13.1199
▁segment	-13.1199
▁Model	-13.1199
▁Fragran	-13.1199
▁prawn	-13.1199
▁Understand	-13.1199
▁Application	-13.1199
▁prejudice	-13.1199
▁vomit	-13.1199
▁Steak	-13.1199
▁guarantor	-13.1199
▁Yankee	-13.1199
▁Flash	-13.1199
▁unripe	-13.1199
▁postgraduate	-13.1199
▁Cosmo	-13.1199
▁razor	-13.1199
▁grapefruit	-13.1199
▁shovel	-13.1199
▁Mount	-13.1199
▁sustain	-13.1199
▁splash	-13.1199
▁Yuri	-13.1199
▁thrift	-13.1199
▁gymnastic	-13.1199
▁marvel	-13.1199
▁pavilion	-13.1199
▁Corp	-13.1199
▁emperor	-13.12
cussion	-13.12
▁trigger	-13.12
▁Blanc	-13.12
▁civilization	-13.12
▁provision	-13.12
▁Cycl	-13.12
▁saddle	-13.12
▁compound	-13.12
▁minister	-13.12
▁Albert	-13.1201
▁bulk	-13.1201
▁Reeve	-13.1201
▁editorial	-13.1201
▁precise	-13.1201
▁saucepan	-13.1201
▁piggy	-13.1201
▁Paper	-13.1202
▁condom	-13.1202
▁subtle	-13.1202
▁exclusive	-13.1202
▁nickel	-13.1202
▁casket	-13.1202
▁pledge	-13.1203
▁psycho	-13.1203
▁elective	-13.1203
▁remark	-13.1203
ologne	-13.1203
▁suprem	-13.1203
▁reveal	-13.1204
▁psychologist	-13.1204
▁Lawson	-13.1204
▁stereotype	-13.1204
▁polar	-13.1204
▁motel	-13.1205
▁Girl	-13.1205
▁depriv	-13.1205
▁commitment	-13.1206
▁devil	-13.1206
nthrop	-13.1206
▁muffin	-13.1207
▁Space	-13.1208
▁Sky	-13.1208
▁Expo	-13.1208
▁carsick	-13.1209
▁subsidiar	-13.1209
▁Forrest	-13.1209
▁delete	-13.121
▁feather	-13.121
▁spotless	-13.121
▁Giant	-13.121
▁las	-13.121
▁valve	-13.121
▁snail	-13.1211
▁giant	-13.1211
▁complement	-13.1211
eremon	-13.1212
▁Dis	-13.1213
▁eternal	-13.1214
▁fluid	-13.1214
▁defeat	-13.1216
▁impatien	-13.1216
▁typewriter	-13.1217
▁sandstorm	-13.1217
▁wrist	-13.1218
▁tripod	-13.122
▁transparenc	-13.122
▁grinder	-13.1221
▁piercing	-13.1221
▁Cheng	-13.1221
▁strive	-13.1222
▁Soci	-13.1223
▁formula	-13.1223
▁fantas	-13.1224
▁nause	-13.1226
▁spra	-13.1228
▁shredde	-13.123
▁explode	-13.123
▁upward	-13.1231
ractice	-13.1232
▁glamo	-13.1234
▁plat	-13.1236
▁cramp	-13.1238
cus	-13.1241
midt	-13.1241
▁flex	-13.1241
▁reform	-13.1245
▁Pine	-13.1245
▁Evans	-13.1252
▁SW	-13.1253
▁prosper	-13.1254
▁merger	-13.1259
777	-13.1259
▁solv	-13.126
▁unpack	-13.1261
▁bitter	-13.1263
▁Interview	-13.1265
▁sensation	-13.1266
▁dragg	-13.1267
▁unite	-13.1267
▁Goo	-13.1268
▁Dress	-13.127
▁Tomb	-13.1271
▁Roast	-13.1274
▁threat	-13.1274
▁mindless	-13.1276
▁curler	-13.1278
▁lodge	-13.1282
▁murderer	-13.1285
reakfast	-13.1293
▁Darn	-13.1302
▁legaliz	-13.1303
▁ethic	-13.1304
▁greeting	-13.131
▁binder	-13.1314
▁washe	-13.1318
▁piss	-13.132
brand	-13.1323
hristmas	-13.1327
▁immigrati	-13.1328
▁regretful	-13.1329
▁solvent	-13.133
mela	-13.1335
▁TA	-13.1342
favorite	-13.1344
▁coca	-13.1345
such	-13.1348
▁gradual	-13.135
▁limitation	-13.1353
▁Snow	-13.1355
▁maple	-13.1359
▁adviser	-13.1361
▁lands	-13.1363
▁rib	-13.1363
onic	-13.1364
▁tens	-13.1365
▁fringe	-13.1369
nglish	-13.1373
▁Depart	-13.1375
▁buckle	-13.1379
▁potter	-13.1381
▁wealthie	-13.1385
▁distinct	-13.1391
▁Tra	-13.1392
▁Hard	-13.1393
▁dar	-13.1395
nold	-13.1404
▁puff	-13.1408
▁regulate	-13.1415
limate	-13.1417
,200	-13.1418
hero	-13.142
▁relay	-13.1421
▁warrior	-13.1422
tyle	-13.1428
▁Employee	-13.1428
▁corrupt	-13.143
grade	-13.1431
▁Rocket	-13.1446
ral	-13.1449
runk	-13.145
rocket	-13.145
▁spam	-13.1451
▁foam	-13.1452
hair	-13.1458
▁focused	-13.146
▁penn	-13.1471
▁micro	-13.1474
▁minds	-13.1476
▁mixer	-13.1476
▁Fairb	-13.1476
ates	-13.1481
gers	-13.1482
▁groov	-13.1483
▁stud	-13.1491
great	-13.1495
▁clic	-13.15
▁Jes	-13.1501
iny	-13.1506
▁El	-13.1509
than	-13.1515
▁esca	-13.1515
▁versa	-13.1516
ading	-13.1517
eard	-13.1517
▁gang	-13.152
dder	-13.1521
ssible	-13.1523
▁Tor	-13.1528
elix	-13.153
▁sew	-13.1536
sorry	-13.1538
▁Sterl	-13.1541
rains	-13.1542
▁Nicol	-13.1543
▁measur	-13.1543
Most	-13.1545
rolog	-13.155
300	-13.155
▁72	-13.1559
▁Direct	-13.1559
zi	-13.1562
crack	-13.1564
▁terra	-13.1566
▁shield	-13.1566
▁donate	-13.1571
fia	-13.1573
▁Patric	-13.1573
zen	-13.158
▁OH	-13.1581
meone	-13.1583
▁extrav	-13.1584
onary	-13.159
▁france	-13.1591
Give	-13.1594
▁Scienti	-13.1603
▁Up	-13.1613
action	-13.1622
▁Meet	-13.1622
▁Hank	-13.1624
▁Marc	-13.1635
dust	-13.1635
▁lanes	-13.1639
ransfer	-13.164
dise	-13.1641
mmer	-13.165
▁inv	-13.1651
▁scrap	-13.166
control	-13.1665
orse	-13.1665
▁Carm	-13.167
▁compil	-13.1671
bal	-13.1672
▁calculat	-13.1687
▁44	-13.1688
▁Stac	-13.1689
▁soften	-13.1692
▁Collecti	-13.1701
Many	-13.1708
▁Joey	-13.1708
▁402	-13.171
rial	-13.1711
▁bio	-13.1716
lian	-13.1724
▁conscious	-13.1729
att	-13.1732
tions	-13.1739
▁ki	-13.174
▁emerg	-13.1741
▁ban	-13.1757
xperience	-13.1758
care	-13.1768
site	-13.1774
wh	-13.178
reasonable	-13.178
▁sprint	-13.1783
▁swimmer	-13.1785
score	-13.1799
▁golfer	-13.18
owing	-13.18
▁scann	-13.1806
Even	-13.1808
▁notif	-13.182
▁Wild	-13.1821
GA	-13.1824
ieve	-13.1827
▁Rem	-13.1828
ssociation	-13.1834
gu	-13.1835
▁Fat	-13.1841
▁booths	-13.1845
prepared	-13.1846
▁terminate	-13.1848
▁soak	-13.1855
laborat	-13.1861
mean	-13.1876
ss	-13.1876
serve	-13.1883
tie	-13.1885
▁Mega	-13.1889
▁vacat	-13.1891
▁43	-13.1902
ardines	-13.1906
▁dine	-13.1907
▁Mu	-13.1913
▁fatte	-13.1917
▁preserve	-13.192
▁tasteful	-13.1924
chair	-13.1926
▁DVDs	-13.1927
artial	-13.1933
▁84	-13.1935
▁Disco	-13.1935
▁rode	-13.194
sman	-13.1949
67	-13.1951
arc	-13.1956
step	-13.1958
tinu	-13.1962
ics	-13.1964
▁bind	-13.1965
▁Than	-13.1967
▁steve	-13.1967
ountries	-13.1968
▁Bal	-13.1972
▁prose	-13.1977
latter	-13.1977
avoid	-13.1984
▁Teach	-13.1984
▁backup	-13.1996
milk	-13.1997
handle	-13.1997
▁Suppose	-13.2
▁Provid	-13.201
▁cred	-13.2013
▁cycle	-13.2014
Other	-13.2017
odbye	-13.2022
aven	-13.2022
▁Non	-13.203
▁Nurs	-13.204
ater	-13.2041
▁max	-13.2048
▁achiev	-13.2054
▁Point	-13.2056
▁memor	-13.2057
assive	-13.2067
wis	-13.2071
▁rag	-13.2073
▁overwork	-13.2074
ame	-13.2076
▁equit	-13.2077
sive	-13.2083
skirt	-13.209
▁designe	-13.209
gum	-13.2098
▁ware	-13.2098
hear	-13.21
ylv	-13.2107
▁Way	-13.2109
custom	-13.2109
omele	-13.2115
lights	-13.2117
pool	-13.2118
▁Aust	-13.2119
▁33	-13.2123
▁Wouldn	-13.2123
bble	-13.213
alcohol	-13.2135
committe	-13.2136
ledge	-13.2141
▁Ni	-13.2143
▁snowma	-13.2143
anic	-13.2147
Wil	-13.2149
does	-13.2149
ren	-13.215
Mak	-13.2153
▁securit	-13.2155
▁dri	-13.2162
Thom	-13.2165
▁vi	-13.2169
▁carat	-13.2178
▁Sau	-13.2181
▁updat	-13.2193
▁cherr	-13.2194
heck	-13.2202
▁345	-13.2202
buck	-13.2211
abyte	-13.2211
heart	-13.2216
flavor	-13.2219
▁riches	-13.2219
▁northw	-13.2223
uxe	-13.2225
az	-13.2231
spoonful	-13.2233
nding	-13.2235
▁Books	-13.2236
▁cropp	-13.224
▁Case	-13.2245
maker	-13.2254
ander	-13.2255
ready	-13.2268
▁define	-13.2275
scale	-13.2275
arren	-13.2276
stream	-13.228
bird	-13.2283
wheel	-13.2283
arten	-13.2283
▁accelerat	-13.2288
▁882	-13.2293
▁inflat	-13.2294
tray	-13.2296
offs	-13.2301
▁Iris	-13.2303
ained	-13.2304
▁Alp	-13.2309
Twenty	-13.231
plus	-13.231
22	-13.2332
▁rip	-13.2333
Man	-13.2343
▁Ali	-13.2343
tance	-13.236
spoke	-13.2361
tro	-13.2366
▁Eas	-13.2367
▁Lia	-13.237
▁secretari	-13.2373
▁stretche	-13.2377
edicine	-13.2378
▁munchi	-13.2381
53	-13.2381
▁plead	-13.2387
hu	-13.2388
▁Min	-13.2389
▁mono	-13.239
functional	-13.239
▁mistaken	-13.2401
Aut	-13.2408
cm	-13.2408
lap	-13.2415
cile	-13.2418
ndle	-13.2427
▁Mend	-13.2435
ders	-13.2438
economics	-13.2446
Vale	-13.2455
▁fre	-13.246
blogg	-13.2464
▁mount	-13.2464
zone	-13.2465
business	-13.2469
▁stream	-13.2481
▁dispos	-13.2483
oms	-13.2486
▁bog	-13.2487
▁permits	-13.2498
rupt	-13.2515
▁fork	-13.2518
gs	-13.2519
27	-13.2522
▁alon	-13.2524
rt	-13.253
ses	-13.2531
cock	-13.2531
misu	-13.2533
tern	-13.2546
tex	-13.2551
train	-13.2557
discre	-13.2558
erage	-13.2563
▁dais	-13.2573
▁refus	-13.2581
CA	-13.259
type	-13.2594
ered	-13.2604
centur	-13.2607
etween	-13.2615
fast	-13.2622
rest	-13.2623
▁consen	-13.263
hange	-13.2631
35	-13.2631
▁participati	-13.2634
▁stipulat	-13.2638
▁Lau	-13.264
▁virtue	-13.2642
credit	-13.2647
cker	-13.2654
rway	-13.2656
breast	-13.2662
inan	-13.2666
▁Maint	-13.2669
rudge	-13.267
iao	-13.2679
▁lu	-13.2682
▁cavi	-13.2696
rene	-13.2698
▁enquir	-13.27
▁spec	-13.2705
▁Hand	-13.2708
▁appar	-13.2721
hnic	-13.2726
dministration	-13.2727
plier	-13.2729
▁12.	-13.2733
▁cre	-13.2736
nted	-13.2741
▁hardw	-13.2747
▁accuse	-13.275
▁urin	-13.2762
bon	-13.2772
ister	-13.2779
ci	-13.2799
ause	-13.2802
urname	-13.2809
▁explorer	-13.2809
▁Bat	-13.2815
ergy	-13.282
▁boot	-13.2821
ales	-13.2821
▁certifie	-13.283
▁Temp	-13.2834
chol	-13.2841
station	-13.2845
ids	-13.2846
▁specializ	-13.2849
41	-13.2856
downs	-13.2861
▁memoriz	-13.2862
department	-13.2865
▁Dev	-13.2865
ndid	-13.2865
▁equ	-13.2869
ash	-13.2869
▁Ur	-13.287
inten	-13.2871
pher	-13.2878
Jen	-13.2884
▁attache	-13.2886
▁Brea	-13.289
▁generat	-13.2896
▁continu	-13.2901
▁tactic	-13.2902
show	-13.2918
▁pamp	-13.2918
▁mental	-13.292
▁62	-13.2941
▁reverse	-13.2942
overnment	-13.2957
▁slave	-13.2959
▁Fab	-13.2971
ctic	-13.2972
▁cau	-13.2973
nag	-13.2977
today	-13.2984
nches	-13.2992
andy	-13.2994
▁Gram	-13.3008
▁Commerc	-13.301
role	-13.3012
▁bon	-13.3021
▁Mart	-13.3027
ragg	-13.3032
▁Con	-13.3035
▁256	-13.304
▁triple	-13.3042
thur	-13.3055
▁Reg	-13.3065
polite	-13.307
ometer	-13.3076
▁Isabel	-13.3079
La	-13.3086
▁fad	-13.3093
▁le	-13.3093
▁domi	-13.3096
▁homes	-13.3096
sha	-13.311
▁Jer	-13.3113
sis	-13.3115
▁categori	-13.3126
▁dinn	-13.3129
ron	-13.3136
agg	-13.3144
▁138	-13.3146
ames	-13.3149
▁definit	-13.3153
ilk	-13.3154
orrid	-13.3156
Stevens	-13.3167
▁mega	-13.317
fective	-13.3179
Er	-13.3202
▁dye	-13.3206
▁bil	-13.3211
▁Vic	-13.3212
▁3.5	-13.3221
▁235	-13.3227
▁Rip	-13.323
money	-13.323
▁mechani	-13.3232
▁0.	-13.3237
aying	-13.3239
▁recording	-13.3241
eling	-13.3246
▁occur	-13.3271
elations	-13.3276
▁Tele	-13.328
▁conc	-13.3282
▁visi	-13.3287
ents	-13.3295
▁210	-13.3296
▁Eng	-13.3296
▁pur	-13.3296
leave	-13.3297
▁hea	-13.33
keep	-13.3316
▁hon	-13.3336
▁Tech	-13.3343
bing	-13.3347
▁supermarkets	-13.3355
▁Chee	-13.3355
che	-13.3359
▁irritat	-13.3365
bec	-13.3369
ogether	-13.3377
▁mic	-13.3381
oon	-13.3388
rn	-13.3397
▁discus	-13.3404
ooked	-13.3408
▁practis	-13.3414
urban	-13.3415
cher	-13.3417
▁strategi	-13.3418
lator	-13.3418
gate	-13.3422
alance	-13.3437
▁Feli	-13.3438
meth	-13.3438
tters	-13.344
.4	-13.3444
▁Includ	-13.3445
▁Develop	-13.3453
nly	-13.3457
▁Gal	-13.3459
Hello	-13.3461
▁brushe	-13.3464
esthetic	-13.349
▁phon	-13.3495
04	-13.3496
07	-13.3498
▁schedul	-13.3505
▁circu	-13.3506
▁taxe	-13.3513
PT	-13.3521
▁mineral	-13.3523
▁BE	-13.3524
▁twentie	-13.3528
▁thunderstorm	-13.3528
oghurt	-13.3529
ently	-13.3532
alty	-13.3533
▁Worker	-13.3537
▁barbe	-13.3544
uri	-13.3552
▁gam	-13.3554
inner	-13.3558
break	-13.3562
▁2.5	-13.3563
▁83	-13.3566
▁ours	-13.3574
▁construct	-13.3577
▁wok	-13.3579
ON	-13.3583
which	-13.3584
▁que	-13.3586
68	-13.3587
▁Imagin	-13.3607
Pac	-13.3614
▁Admin	-13.3615
▁proficien	-13.3623
skat	-13.3625
▁diligen	-13.3632
023	-13.3635
icy	-13.364
mala	-13.3643
▁windsurf	-13.3653
▁Consultan	-13.3654
uspicio	-13.3655
▁Yea	-13.3659
lates	-13.366
ric	-13.3662
▁appetiz	-13.3673
dult	-13.3674
▁commend	-13.3678
▁Marsha	-13.3679
▁Mand	-13.3682
ortgage	-13.3685
▁chilli	-13.3685
ashi	-13.3686
food	-13.3688
ducation	-13.3692
ucrat	-13.3692
counting	-13.3692
nstant	-13.3694
▁Fish	-13.3696
▁situat	-13.3697
▁gymnas	-13.3698
ichael	-13.3698
▁456	-13.3698
finite	-13.3698
▁apprentice	-13.3698
▁testimon	-13.3698
privilege	-13.3698
▁232-245	-13.3698
▁Arabia	-13.3698
▁Cigarette	-13.3698
▁Colombia	-13.3698
▁Frankfurt	-13.3698
▁Gentlem	-13.3698
▁Himalaya	-13.3698
▁Journal	-13.3698
▁Pakistan	-13.3698
▁Religion	-13.3698
▁Volunteer	-13.3698
▁acoustic	-13.3698
▁aficionado	-13.3698
▁convulsion	-13.3698
▁deliberate	-13.3698
▁entrepreneur	-13.3698
▁fracture	-13.3698
▁koala	-13.3698
▁neglect	-13.3698
▁pixel	-13.3698
▁vintage	-13.3698
▁conquer	-13.3699
▁gadgets	-13.3699
▁prestig	-13.3699
▁scissors	-13.3699
▁Mechanic	-13.3699
▁exfoliat	-13.3699
▁vivid	-13.3699
▁Micro	-13.3699
▁goalkeeper	-13.3699
▁proportion	-13.3699
▁Utah	-13.3699
▁Thompson	-13.3699
▁imitate	-13.3699
▁Engaged	-13.3699
▁denomination	-13.3699
▁overreact	-13.3699
▁scandal	-13.3699
▁Abraham	-13.3699
▁Croft	-13.3699
▁dissolve	-13.3699
▁Redskin	-13.3699
▁resilien	-13.3699
▁tunnel	-13.3699
▁Belgi	-13.3699
▁swamp	-13.3699
▁pigeon	-13.3699
▁casino	-13.3699
▁frugal	-13.3699
▁dynamic	-13.3699
▁Further	-13.3699
▁Eleven	-13.3699
▁Entrust	-13.3699
▁newsagent	-13.3699
▁Alpha	-13.3699
▁unplug	-13.3699
cotta	-13.3699
▁centigrade	-13.3699
▁physi	-13.3699
▁Bargain	-13.3699
▁Plastic	-13.3699
▁contender	-13.3699
▁collide	-13.3699
▁uncertain	-13.3699
▁crossroad	-13.3699
▁Darren	-13.3699
▁symbolize	-13.3699
▁Egyptian	-13.3699
▁Jessie	-13.3699
▁Regard	-13.37
▁hotspot	-13.37
▁humid	-13.37
▁freshener	-13.37
▁disembark	-13.37
▁seasick	-13.37
▁1021	-13.37
▁Saint	-13.37
lumni	-13.37
▁canvas	-13.37
▁eagle	-13.37
▁010	-13.3701
▁sis	-13.3701
▁attribute	-13.3701
▁kingdom	-13.3701
▁Philip	-13.3701
▁audio	-13.3701
▁commence	-13.3702
▁pineapple	-13.3702
▁discrepanc	-13.3702
▁drizzl	-13.3702
▁surcharge	-13.3702
▁Sunset	-13.3702
▁Design	-13.3702
▁proto	-13.3702
▁blink	-13.3703
▁judgment	-13.3703
▁confront	-13.3703
▁mantel	-13.3704
▁newbie	-13.3704
5678	-13.3704
▁humiliat	-13.3704
naire	-13.3704
▁alteration	-13.3704
▁smith	-13.3704
▁detector	-13.3704
▁condiment	-13.3704
▁bestseller	-13.3705
▁ownership	-13.3705
▁KL	-13.3705
▁512	-13.3706
▁dutiable	-13.3706
▁278	-13.3706
▁Stick	-13.3707
▁Pauline	-13.3707
▁roman	-13.3708
▁Digest	-13.3708
obedien	-13.3708
▁earphone	-13.3708
▁Cloud	-13.3708
▁redesign	-13.3709
▁drawback	-13.3709
▁jane	-13.371
▁carbon	-13.371
▁Dream	-13.3713
▁centuries	-13.3713
▁Theatre	-13.3713
▁Found	-13.3714
▁320	-13.3714
uality	-13.3714
uickly	-13.3714
noxi	-13.3714
never	-13.3715
▁Messag	-13.3717
▁timesheet	-13.3717
▁urinate	-13.3717
▁echo	-13.3717
▁wrestler	-13.3717
arcel	-13.3718
▁Op	-13.3719
▁GB	-13.3719
▁Die	-13.372
▁rigor	-13.3721
▁econ	-13.3721
ours	-13.3721
▁administ	-13.3721
▁frizz	-13.3722
▁Toast	-13.3722
▁215	-13.3722
▁mu	-13.3722
▁haggle	-13.3723
ocate	-13.3724
▁DU	-13.3724
▁coffeehouse	-13.3724
▁occasional	-13.3724
▁YY	-13.3724
▁suspicion	-13.3724
▁copyright	-13.3724
▁thunder	-13.3725
▁animation	-13.3725
▁lustr	-13.3725
▁Problem	-13.3726
▁Gang	-13.3726
▁rerun	-13.3727
▁stationary	-13.3727
▁floss	-13.3727
▁witnesse	-13.3728
▁overcook	-13.3728
stick	-13.3728
▁Fang	-13.3729
arning	-13.373
▁melod	-13.373
▁Polly	-13.373
▁Saver	-13.3732
▁ditch	-13.3733
▁haunt	-13.3733
▁turtle	-13.3735
▁Sto	-13.3735
endous	-13.3736
▁expansi	-13.3736
ineapple	-13.3736
▁interviewee	-13.3736
▁worship	-13.3737
uick	-13.3737
roj	-13.3739
▁GM	-13.374
▁suspend	-13.3744
▁Resident	-13.3745
Supplies	-13.3746
▁Exam	-13.3747
▁Pop	-13.3748
perate	-13.3749
trous	-13.375
▁chatter	-13.3755
phones	-13.3759
▁pleas	-13.3759
▁Continent	-13.3764
▁Willie	-13.3767
▁bandw	-13.3769
▁Bach	-13.377
▁revolutionar	-13.3774
▁glow	-13.3777
sitive	-13.3778
deli	-13.378
▁Remi	-13.378
▁hunch	-13.3782
▁mailbox	-13.3786
▁snipe	-13.3788
▁unf	-13.3792
▁Rude	-13.3794
▁salut	-13.3795
▁association	-13.3801
aver	-13.3805
ipal	-13.3806
▁Sunny	-13.381
ills	-13.3812
ailway	-13.3816
wish	-13.3817
▁groomsm	-13.3817
▁Forty	-13.382
▁remov	-13.3821
▁suburb	-13.3822
▁province	-13.3824
▁saint	-13.3828
▁Cow	-13.3829
264	-13.3832
▁Flore	-13.3833
36	-13.3834
▁Secretar	-13.3835
10000	-13.3835
▁Luo	-13.3836
roduction	-13.3839
foli	-13.3843
▁dig	-13.3848
amine	-13.385
Tom	-13.385
ncil	-13.3852
last	-13.3855
complete	-13.3855
▁cookout	-13.3855
▁poach	-13.3857
▁Eighty	-13.3857
▁habitat	-13.3859
▁Mat	-13.3863
active	-13.3865
ami	-13.3866
5623	-13.3868
▁suspen	-13.3869
anks	-13.3872
▁col	-13.3873
raine	-13.3875
▁minerals	-13.3881
▁Box	-13.3883
▁Huan	-13.3892
nes	-13.3896
luct	-13.3896
▁bunny	-13.3897
▁tribe	-13.3903
▁tonsil	-13.3905
▁Wor	-13.3906
▁sanita	-13.3916
▁sacr	-13.3923
ophone	-13.3924
▁champions	-13.3933
big	-13.3942
ouse	-13.3943
▁doze	-13.3945
▁Sport	-13.3959
lled	-13.3959
po	-13.3962
▁Kill	-13.3965
▁anticipate	-13.3965
▁Bra	-13.3968
gant	-13.3971
▁handout	-13.3972
▁Yong	-13.3973
pi	-13.3974
▁Heather	-13.3974
▁Stephen	-13.3981
ulture	-13.3983
▁upside	-13.3989
▁Studio	-13.3992
anything	-13.3993
▁gloss	-13.3993
nol	-13.3994
▁visual	-13.3996
▁Robot	-13.3996
▁User	-13.4
▁genes	-13.4006
problem	-13.4007
outique	-13.4009
log	-13.401
▁famil	-13.4011
▁Yum	-13.4015
▁vertical	-13.4015
tar	-13.4019
ust	-13.4019
▁102	-13.4022
▁Milli	-13.4032
irsty	-13.4036
igan	-13.4036
kids	-13.4037
polis	-13.4059
▁allocate	-13.4064
▁Boa	-13.408
RC	-13.4081
▁blade	-13.4082
▁troubles	-13.4084
▁dive	-13.4087
▁Histor	-13.4091
▁Cr	-13.4102
▁spina	-13.4105
Ok	-13.4109
▁google	-13.4112
mazing	-13.4115
eason	-13.4119
running	-13.4122
va	-13.4129
▁Fri	-13.413
zz	-13.4132
▁tyre	-13.4138
fun	-13.4142
rne	-13.4142
nzh	-13.4143
same	-13.4144
match	-13.4144
▁eas	-13.4145
▁Ren	-13.4148
cent	-13.415
▁supervise	-13.4152
▁convers	-13.4158
famous	-13.4161
▁5.4	-13.4162
osion	-13.4162
morning	-13.4162
crimina	-13.4167
216	-13.4167
uest	-13.4169
lands	-13.4172
▁curse	-13.4177
77	-13.4178
▁nic	-13.4178
▁envi	-13.4185
eater	-13.4192
tes	-13.4198
▁urge	-13.4201
madam	-13.4202
▁Vot	-13.4204
eady	-13.4213
▁rea	-13.4215
▁sha	-13.4222
wedding	-13.4223
eak	-13.4227
doing	-13.4227
etropoli	-13.423
▁del	-13.4233
▁Tia	-13.4234
▁Prof	-13.4235
▁Swee	-13.4237
under	-13.4242
▁distributor	-13.4243
3-4	-13.4244
nded	-13.4255
omprehensi	-13.4261
▁Scra	-13.4267
▁rob	-13.4272
▁lingeri	-13.4274
204	-13.4278
▁skim	-13.4278
sister	-13.4279
strong	-13.4284
alter	-13.4288
▁mint	-13.429
▁fellows	-13.4294
ordin	-13.4295
▁eve	-13.4301
▁colla	-13.4301
▁Light	-13.4318
cracke	-13.4318
▁ambitio	-13.4318
▁Pret	-13.4319
unning	-13.4322
▁wri	-13.4324
▁bull	-13.4325
mentally	-13.4327
▁defect	-13.4332
▁damag	-13.4334
mination	-13.4338
anjin	-13.4338
stabbe	-13.4339
▁sc	-13.434
With	-13.434
▁flim	-13.434
astic	-13.4342
▁Sing	-13.4346
▁mach	-13.4346
opped	-13.4348
▁suppl	-13.4349
lf	-13.4354
cience	-13.4355
ontrol	-13.4358
▁Ot	-13.4361
better	-13.4362
▁Des	-13.4362
▁irrita	-13.4363
▁Gran	-13.4368
▁considerabl	-13.4369
▁absente	-13.4369
▁Ei	-13.4372
▁68	-13.4375
ument	-13.4377
▁analyst	-13.4378
counter	-13.4378
▁acid	-13.4379
▁hazard	-13.4381
girlfriend	-13.4385
AK	-13.4401
▁tins	-13.4403
dinner	-13.4405
aren	-13.4408
▁invade	-13.4411
▁laps	-13.442
▁Tur	-13.4424
hin	-13.4427
ecision	-13.4427
gent	-13.4428
tinct	-13.4431
▁tack	-13.4433
306	-13.4434
yes	-13.4438
▁twinkl	-13.4439
home	-13.444
▁7-	-13.4443
▁lessen	-13.4454
green	-13.4458
▁Tax	-13.4461
essa	-13.4465
vernment	-13.4467
▁smarty	-13.4474
▁Clean	-13.4475
grow	-13.4478
▁Peac	-13.4478
▁breakdanc	-13.4479
venge	-13.448
▁grey	-13.4486
▁Doug	-13.449
sheet	-13.4494
▁releases	-13.4496
staff	-13.4497
▁Bl	-13.4497
rger	-13.4502
provok	-13.4504
urse	-13.4511
Incredibl	-13.4517
orking	-13.4521
▁carving	-13.4523
Hank	-13.4526
rlin	-13.4528
▁unforge	-13.4528
uction	-13.4529
▁pose	-13.4533
correct	-13.4534
ibrary	-13.4544
▁mill	-13.455
▁educat	-13.4555
Be	-13.4556
▁neare	-13.4562
nish	-13.4564
▁committ	-13.4566
drew	-13.4567
▁highe	-13.4574
▁Live	-13.4583
▁replac	-13.4584
▁correction	-13.4591
▁Entr	-13.4592
goo	-13.4607
orkshop	-13.4608
▁Gan	-13.4614
▁Celi	-13.462
▁tastie	-13.4622
lobe	-13.4626
ack	-13.4627
aske	-13.4633
breed	-13.4636
Two	-13.4637
▁Pal	-13.4638
▁wal	-13.4642
SL	-13.4647
▁Fif	-13.4649
▁Ris	-13.4651
stances	-13.4651
356	-13.4654
rbon	-13.4664
▁tick	-13.467
▁7.	-13.4672
elon	-13.4686
▁Mus	-13.4688
▁torture	-13.4688
▁liver	-13.4694
Sure	-13.4696
IM	-13.4698
sche	-13.47
wns	-13.4706
apes	-13.4707
Get	-13.471
comfort	-13.4718
ura	-13.4723
mic	-13.4726
ecker	-13.4726
▁Cou	-13.4735
▁contro	-13.4736
▁Wis	-13.4736
▁socializ	-13.4736
drop	-13.4739
▁diner	-13.4744
lite	-13.4759
vocab	-13.4763
▁Ol	-13.4767
▁cork	-13.4769
▁teache	-13.4772
▁appare	-13.4773
▁flags	-13.4775
▁poly	-13.4775
itis	-13.4778
edge	-13.4778
▁comed	-13.4782
bes	-13.4783
▁Pleas	-13.4783
▁detect	-13.4785
camp	-13.479
▁Rol	-13.4796
lit	-13.4802
▁Mainl	-13.4813
▁880	-13.4814
▁Lam	-13.4815
manage	-13.4827
▁demo	-13.483
▁propos	-13.4833
earning	-13.4836
idle	-13.4842
ils	-13.4844
convenient	-13.4846
huan	-13.4847
267	-13.4854
▁pollute	-13.4857
worm	-13.4857
▁slo	-13.4865
bearer	-13.4868
▁ferr	-13.4879
coat	-13.4879
▁transform	-13.4892
club	-13.4892
▁agil	-13.4894
▁possib	-13.4906
omat	-13.4906
▁destructi	-13.4908
▁pat	-13.4908
▁burd	-13.491
▁resolv	-13.4913
▁blu	-13.4917
▁theolog	-13.4919
▁Tree	-13.4926
▁Set	-13.4932
▁mud	-13.4935
ys	-13.4935
▁automat	-13.4941
▁Spi	-13.4942
▁wreck	-13.4942
print	-13.4942
tribution	-13.4944
▁Furni	-13.4957
hl	-13.4961
gether	-13.4961
▁redecorate	-13.4962
irl	-13.4963
dance	-13.4964
ela	-13.4967
▁spel	-13.4967
sort	-13.4972
221	-13.4975
▁stee	-13.4981
▁UV	-13.4988
▁dispose	-13.4992
ittle	-13.5
adiator	-13.5
Three	-13.5
guarantee	-13.5003
▁Comfort	-13.5003
connect	-13.5005
natural	-13.5027
23	-13.5028
call	-13.5036
▁fighter	-13.5043
ffle	-13.5043
rooms	-13.5049
▁relocate	-13.5057
▁beache	-13.5072
qui	-13.5073
lling	-13.5074
ab	-13.5075
electric	-13.5081
boyfriend	-13.5082
▁Gre	-13.5086
Near	-13.5086
agic	-13.5099
▁simulate	-13.5106
564	-13.5107
▁Legal	-13.5108
▁await	-13.5114
ights	-13.5118
▁shu	-13.5134
ire	-13.5136
anded	-13.5137
ests	-13.5145
▁Hell	-13.5147
▁slate	-13.5151
sistance	-13.5152
Hi	-13.5152
▁Feb	-13.5155
tone	-13.516
ances	-13.5178
annual	-13.5183
▁mishap	-13.5193
kn	-13.5196
▁sav	-13.5198
▁Superb	-13.52
wrap	-13.5201
eading	-13.5205
▁brai	-13.5211
Check	-13.5211
▁310	-13.5218
Mart	-13.5222
▁Math	-13.5223
little	-13.5232
qualifie	-13.5235
science	-13.5239
▁Te	-13.5242
▁Tamp	-13.5245
mouth	-13.5246
Johnson	-13.525
▁Pack	-13.5251
400	-13.5254
itch	-13.5269
MA	-13.527
▁scan	-13.5279
▁greener	-13.5279
▁supporter	-13.5282
14	-13.5283
ivision	-13.5284
cing	-13.529
loud	-13.529
claim	-13.5292
bidd	-13.5301
▁Inc	-13.5302
fell	-13.5307
ui	-13.5312
▁Pea	-13.532
▁Sel	-13.5321
55	-13.5322
interesting	-13.5331
seat	-13.5332
▁AB	-13.5333
common	-13.5333
miss	-13.5337
▁accelerate	-13.5339
space	-13.5341
number	-13.5347
ert	-13.5352
cu	-13.5366
▁reli	-13.5367
invest	-13.5372
▁Norma	-13.5376
▁Alis	-13.5381
▁firew	-13.5383
▁infl	-13.5383
Four	-13.5387
▁essen	-13.5396
47	-13.5402
▁relocat	-13.5404
eck	-13.5405
▁Houses	-13.5413
mount	-13.5416
nough	-13.5428
▁centi	-13.5429
uture	-13.5432
Glad	-13.5433
▁doll	-13.5438
ju	-13.5455
liter	-13.5459
▁waive	-13.5459
find	-13.5467
▁pointer	-13.5478
movie	-13.5481
ania	-13.5481
▁strapp	-13.5485
isk	-13.5494
Dam	-13.5499
DI	-13.5504
Bring	-13.5507
345	-13.5512
▁supervis	-13.5514
shoot	-13.5522
uda	-13.5528
ass	-13.5529
spread	-13.5531
rie	-13.5532
dness	-13.5536
sistant	-13.554
next	-13.5542
▁Ideal	-13.5547
llite	-13.5547
▁financ	-13.5557
pies	-13.5565
charge	-13.5565
Mona	-13.5571
Asian	-13.5572
occup	-13.5572
▁interacti	-13.5577
format	-13.558
▁healthi	-13.5583
appropriate	-13.5593
rder	-13.5595
hed	-13.5597
also	-13.5601
sibl	-13.5607
wal	-13.5614
rse	-13.5618
always	-13.562
▁beca	-13.5623
alf	-13.5633
biograph	-13.5634
equi	-13.5635
▁Past	-13.5638
erce	-13.5638
voca	-13.5642
Seller	-13.5642
hire	-13.5644
culi	-13.5645
chief	-13.5651
▁Win	-13.5657
cit	-13.5659
Point	-13.5664
Power	-13.5679
overs	-13.5681
income	-13.5681
guard	-13.5684
▁impl	-13.5695
▁apprecia	-13.5697
▁mir	-13.57
ines	-13.5704
▁switche	-13.5705
naps	-13.5708
Step	-13.5708
▁balanc	-13.5709
▁expo	-13.571
▁vein	-13.5712
chemist	-13.5712
significant	-13.5716
ctions	-13.5722
▁surviv	-13.5726
tim	-13.5728
opping	-13.5734
mble	-13.575
eye	-13.5751
▁skinn	-13.5758
▁Map	-13.5764
pick	-13.5766
Actual	-13.5766
rself	-13.5767
▁replie	-13.577
iled	-13.5771
▁shak	-13.5775
▁memos	-13.5777
etty	-13.5783
rofessor	-13.5788
▁jo	-13.5791
Ve	-13.5792
rrow	-13.5793
were	-13.581
▁Abo	-13.5819
▁Licen	-13.5822
▁solit	-13.5822
▁slee	-13.5824
acked	-13.5825
▁arra	-13.5829
nique	-13.5844
▁Bee	-13.5845
iang	-13.5853
ional	-13.5867
▁manicur	-13.5869
▁cann	-13.588
vice	-13.5894
Ben	-13.5895
▁Bet	-13.59
igger	-13.59
didn	-13.5901
liver	-13.5922
▁Patt	-13.5924
Happ	-13.5924
▁Ste	-13.5927
▁moisturiz	-13.5929
▁Mov	-13.593
before	-13.5934
orrow	-13.5937
post	-13.5938
▁grin	-13.5939
amp	-13.5942
▁duplicat	-13.5959
eighth	-13.5971
gos	-13.5972
stro	-13.5972
ces	-13.598
▁01	-13.6
cat	-13.6002
rovince	-13.6006
steps	-13.6007
bags	-13.601
ower	-13.6013
tant	-13.6016
Fin	-13.6024
600	-13.6024
▁Cra	-13.6025
170	-13.6032
alling	-13.6036
EN	-13.6036
▁287	-13.6039
cliff	-13.6042
▁Circ	-13.6046
boxing	-13.6047
hon	-13.6048
iling	-13.6054
▁tones	-13.6055
▁cance	-13.6058
merc	-13.6072
▁Hun	-13.6073
lous	-13.6077
years	-13.6081
▁exp	-13.6083
▁eng	-13.6086
buy	-13.6087
lts	-13.6104
owe	-13.6114
rot	-13.6121
booked	-13.6125
▁persuad	-13.6129
63	-13.6141
reader	-13.6148
324	-13.6156
▁dock	-13.6171
rcy	-13.6173
▁flo	-13.6177
road	-13.6179
roid	-13.6182
▁accus	-13.6186
▁possess	-13.6195
▁3,	-13.6198
rolled	-13.6199
stay	-13.6214
Car	-13.6217
ria	-13.6233
▁comedi	-13.6246
sy	-13.6263
▁Cap	-13.6273
ency	-13.6278
▁Social	-13.628
▁Seem	-13.6282
ramer	-13.6286
▁violat	-13.6288
▁smalle	-13.6292
▁fenc	-13.6293
▁88	-13.6301
▁ratio	-13.6308
▁fist	-13.631
▁prop	-13.6312
▁Tu	-13.632
▁incident	-13.632
▁502	-13.6323
▁gramma	-13.6328
▁fami	-13.6336
007	-13.6338
▁6.5	-13.6343
iji	-13.6346
▁Core	-13.6362
▁automati	-13.6366
ows	-13.6367
nker	-13.6369
ealing	-13.6371
▁Yan	-13.6385
▁exchang	-13.6407
entation	-13.6418
suit	-13.6423
Davi	-13.6434
▁suff	-13.6436
dvisor	-13.6456
▁pri	-13.6459
CD	-13.6463
John	-13.6476
▁immigrate	-13.6479
ictoria	-13.6486
▁Ham	-13.6504
cell	-13.6504
▁believ	-13.651
48	-13.6524
▁stationer	-13.6534
▁Haw	-13.6535
cute	-13.6536
▁Sein	-13.6536
▁broker	-13.6543
▁vibra	-13.655
und	-13.6553
ologn	-13.6566
▁resid	-13.6566
▁Gao	-13.6571
harge	-13.6572
▁flam	-13.658
onight	-13.6583
ICC	-13.659
vocation	-13.659
▁traine	-13.6599
wo	-13.66
211	-13.6601
feel	-13.6604
lief	-13.6605
▁checke	-13.6613
Shan	-13.6619
dual	-13.6621
▁lat	-13.6632
▁Phil	-13.6637
ception	-13.6641
holes	-13.6647
sle	-13.6652
▁mot	-13.6659
ek	-13.666
▁7.2	-13.6663
▁erra	-13.6667
pain	-13.6669
hold	-13.667
▁vul	-13.6675
issan	-13.6683
▁560	-13.6696
▁Pur	-13.6699
behave	-13.6699
BMO	-13.6717
▁Tr	-13.6719
▁analy	-13.6727
▁Beg	-13.6731
uf	-13.6738
▁flushe	-13.6739
▁struggl	-13.6739
umb	-13.6741
colog	-13.6746
▁hijack	-13.6752
▁Holl	-13.6754
alyzer	-13.6756
▁Va	-13.676
another	-13.6767
tude	-13.677
02	-13.6771
must	-13.6776
▁rust	-13.678
everything	-13.6781
▁vis	-13.6782
aw	-13.6794
rod	-13.68
▁Hyd	-13.68
▁Gui	-13.6802
ota	-13.6814
▁Poli	-13.6816
▁frequen	-13.6817
▁115	-13.6818
mov	-13.6835
▁lip	-13.6836
▁Self	-13.684
▁PB	-13.6844
rathe	-13.6845
itche	-13.6852
▁Break	-13.6859
▁cosmetic	-13.6863
homa	-13.6864
ilize	-13.6868
▁persua	-13.6873
mbo	-13.6877
678	-13.688
▁Gav	-13.688
wall	-13.6882
▁mus	-13.6883
▁Carp	-13.6885
▁bicycl	-13.6887
oil	-13.6887
pic	-13.6893
oy	-13.6897
final	-13.6898
▁chron	-13.69
spirin	-13.69
▁212	-13.6904
▁independen	-13.6904
ulin	-13.6924
▁revolution	-13.693
▁oppos	-13.6937
▁Bung	-13.6938
▁specif	-13.6939
▁Ab	-13.694
bber	-13.6946
▁barbecu	-13.6946
▁Fac	-13.6947
▁Espe	-13.6947
motion	-13.6949
gi	-13.6949
▁Addi	-13.6951
▁Pot	-13.6957
rib	-13.6966
isgrace	-13.6967
itted	-13.6969
chedule	-13.6974
▁flexib	-13.6975
stitution	-13.6976
▁refu	-13.6979
cknowledg	-13.698
wang	-13.6991
trawberr	-13.6993
yst	-13.6995
uff	-13.6997
ub	-13.6998
▁librar	-13.7
▁cro	-13.7003
▁5.	-13.7007
▁accura	-13.7009
▁patron	-13.701
▁Stu	-13.7011
zza	-13.7011
crafts	-13.7013
ails	-13.7013
▁rehears	-13.7015
akers	-13.7015
▁tram	-13.7016
▁stirr	-13.702
▁correspond	-13.702
▁admin	-13.7021
▁Anti	-13.7022
escribe	-13.7023
nstruction	-13.7025
pportunity	-13.7027
▁rel	-13.7027
▁transact	-13.7028
▁vouch	-13.7028
▁Mich	-13.7029
▁accompan	-13.7029
evolution	-13.703
olleyball	-13.7032
▁2135-36	-13.7032
▁Participat	-13.7032
▁372501	-13.7032
▁Cinema	-13.7032
▁Ethiopia	-13.7032
▁Extreme	-13.7032
▁Ikebana	-13.7032
▁Investment	-13.7032
▁Ohhhh	-13.7032
▁Wasserman	-13.7032
▁centenary	-13.7032
▁chimney	-13.7032
▁consignee	-13.7032
▁dismantle	-13.7032
▁extinguisher	-13.7032
▁handkerchief	-13.7032
▁hor	-13.7032
▁penetrate	-13.7032
▁preliminar	-13.7032
▁procrastinati	-13.7032
▁quesadilla	-13.7032
▁spectacle	-13.7032
▁spectator	-13.7032
▁taxpayers	-13.7032
▁zhilian	-13.7032
▁zombie	-13.7032
▁Drummond	-13.7032
▁Polaroid	-13.7032
▁Vacation	-13.7032
▁evacuat	-13.7032
▁imprison	-13.7032
▁Corolla	-13.7032
▁captivat	-13.7032
▁contaminant	-13.7032
▁hydro	-13.7032
▁pharmaceutic	-13.7032
▁Hostel	-13.7032
▁Support	-13.7032
▁Argentin	-13.7032
▁Confirm	-13.7032
▁paradise	-13.7032
▁trolley	-13.7032
▁ultimate	-13.7032
▁whisper	-13.7032
▁Banana	-13.7032
▁blabber	-13.7032
▁navigat	-13.7032
▁Village	-13.7032
▁tangerine	-13.7032
▁kangaroo	-13.7032
▁Marquet	-13.7032
▁explosive	-13.7032
▁Combin	-13.7032
▁depict	-13.7032
▁diagonal	-13.7032
▁fanatic	-13.7032
▁sentiment	-13.7032
▁ultra	-13.7032
▁enchant	-13.7032
▁appendi	-13.7032
▁downpour	-13.7032
▁hairdresser	-13.7032
ualification	-13.7032
▁auditor	-13.7032
▁vampire	-13.7032
▁impuls	-13.7032
▁vessel	-13.7032
▁explosion	-13.7032
▁rapid	-13.7032
gregate	-13.7032
▁Wharf	-13.7032
▁Puzzle	-13.7032
▁biannual	-13.7032
roissant	-13.7032
▁0.5	-13.7032
▁physician	-13.7033
▁grandchild	-13.7033
▁CAB	-13.7033
haopin	-13.7033
▁Constant	-13.7033
▁trifle	-13.7033
▁harmonious	-13.7033
▁flavour	-13.7033
▁Warrior	-13.7033
▁Mormon	-13.7033
▁Trick	-13.7033
▁solidify	-13.7033
▁resonate	-13.7033
▁hospitable	-13.7033
nfatuat	-13.7033
▁straightforward	-13.7033
▁profound	-13.7033
▁Motor	-13.7033
▁enviro	-13.7033
▁Advisor	-13.7034
▁Accept	-13.7034
▁fluctuation	-13.7034
▁McK	-13.7034
▁Nigeria	-13.7034
▁Macro	-13.7034
▁grouch	-13.7034
▁Dental	-13.7034
ndependen	-13.7034
▁kidney	-13.7035
▁termination	-13.7035
▁Ribb	-13.7035
▁Bruno	-13.7035
▁layoff	-13.7035
▁Animal	-13.7035
▁hyper	-13.7035
readful	-13.7035
MIT	-13.7036
▁enforce	-13.7036
▁hollow	-13.7036
▁mocha	-13.7036
▁partnership	-13.7036
▁affirm	-13.7036
oxide	-13.7036
▁shiver	-13.7036
▁acquaintance	-13.7037
▁Polar	-13.7037
▁plateau	-13.7037
▁713	-13.7037
▁Captain	-13.7037
▁Lump	-13.7038
▁suntan	-13.7038
▁nametag	-13.7039
▁extraordina	-13.7039
quent	-13.7039
ervo	-13.7039
▁grasp	-13.7039
▁Overwork	-13.7039
▁vegan	-13.704
▁Technical	-13.704
minutes	-13.704
▁vibration	-13.7041
▁milan	-13.7041
▁Hero	-13.7041
▁crank	-13.7041
▁bowel	-13.7041
erfume	-13.7041
▁Eighteen	-13.7041
▁irresponsib	-13.7042
▁cricket	-13.7042
▁Concern	-13.7042
▁acro	-13.7042
▁Machine	-13.7042
▁hamster	-13.7043
▁1200	-13.7043
▁correspondent	-13.7043
▁Teddy	-13.7043
▁countertop	-13.7044
▁175	-13.7044
▁dunk	-13.7045
▁Hug	-13.7046
▁centralise	-13.7046
▁Vincent	-13.7047
▁shredder	-13.7048
▁panties	-13.7048
awson	-13.7049
▁snob	-13.7049
▁Munic	-13.705
▁finalize	-13.705
▁distinction	-13.705
dominate	-13.705
▁moistur	-13.7051
▁meteor	-13.7051
▁enlargement	-13.7052
▁downward	-13.7053
▁Foot	-13.7053
▁kidnapped	-13.7053
past	-13.7054
▁Oct	-13.7054
▁overpower	-13.7055
▁Publish	-13.7056
▁Woman	-13.7056
riff	-13.7057
▁whirl	-13.7057
part	-13.7057
▁Poet	-13.7058
▁refurnish	-13.7058
▁yea	-13.7058
▁clipping	-13.7058
idding	-13.7061
stal	-13.7062
▁comfortabl	-13.7063
roch	-13.7063
▁Figur	-13.7064
▁suspicio	-13.7064
▁turbo	-13.7066
▁controlled	-13.7066
▁abdom	-13.7067
vy	-13.7067
nsert	-13.7068
▁Clare	-13.7069
▁bishop	-13.7069
▁Wonder	-13.7069
▁weightless	-13.707
▁dribbl	-13.707
▁Sub	-13.707
▁Match	-13.7071
▁jell	-13.7073
▁liang	-13.7074
eval	-13.7074
▁mudslides	-13.7075
▁Actor	-13.7076
▁Ral	-13.708
-7	-13.708
▁Nile	-13.7082
▁turntable	-13.7083
▁neuro	-13.7083
▁fratern	-13.7084
▁Washing	-13.7084
▁Pretend	-13.7086
6-7	-13.7086
dvice	-13.7086
▁variable	-13.7088
Brid	-13.7089
▁heavi	-13.709
eopard	-13.7093
▁footage	-13.7094
riminal	-13.7097
▁passive	-13.7099
nson	-13.7102
limb	-13.7102
ushu	-13.7102
▁OO	-13.7108
▁vibe	-13.7108
lon	-13.7109
▁rappe	-13.7109
▁Cancell	-13.7109
▁broaden	-13.7111
▁stewed	-13.7112
66	-13.7112
▁amplifie	-13.7113
▁aqua	-13.7115
gie	-13.7116
▁sack	-13.7117
▁je	-13.7117
▁heroine	-13.7119
oze	-13.7121
▁blogger	-13.7121
seas	-13.7124
▁influen	-13.7125
▁Gene	-13.7127
AN	-13.7129
▁Publi	-13.7129
▁Trusten	-13.713
▁Hamburger	-13.713
▁pests	-13.7131
▁Lav	-13.7133
bre	-13.7135
intend	-13.7135
▁groan	-13.7136
outhern	-13.7138
▁Month	-13.7141
▁OS	-13.7141
▁motive	-13.7143
▁soya	-13.7146
▁terror	-13.7148
▁Ou	-13.7152
▁objection	-13.7152
▁donkey	-13.7153
725	-13.7157
othi	-13.7157
Whi	-13.7159
▁Sla	-13.716
solicit	-13.716
gin	-13.716
▁Awful	-13.7163
▁Fisher	-13.7164
▁viole	-13.7165
▁outfield	-13.7165
vine	-13.7167
▁Bai	-13.7167
flamm	-13.7176
talk	-13.7178
▁indulge	-13.718
ranto	-13.7185
aza	-13.7188
ushi	-13.7191
▁merg	-13.7193
6-8	-13.7194
506	-13.7195
▁Vice	-13.7199
onda	-13.72
▁regrett	-13.7201
rong	-13.7202
▁subscriber	-13.7202
▁cour	-13.7204
▁Creat	-13.7209
SH	-13.7211
▁marinate	-13.7213
▁Bro	-13.7214
▁dividend	-13.7214
ision	-13.7215
alia	-13.7216
▁offend	-13.7217
righten	-13.7217
▁bidder	-13.7218
▁Torna	-13.7218
fan	-13.7218
▁Yu	-13.7221
▁squash	-13.7223
WAL	-13.7225
Ma	-13.7225
▁wha	-13.7228
versity	-13.7231
▁rem	-13.7233
▁originate	-13.7234
▁globe	-13.7234
luc	-13.7238
again	-13.724
uel	-13.7241
▁Lei	-13.7242
seem	-13.7242
▁Techn	-13.7247
cheng	-13.7251
▁lug	-13.7257
▁weirdo	-13.726
▁quad	-13.727
▁ple	-13.727
▁advis	-13.7271
kes	-13.7276
▁Ethe	-13.7276
▁herb	-13.7277
▁Por	-13.7277
▁diversif	-13.7283
▁march	-13.7286
▁merchant	-13.7287
▁Hyde	-13.729
▁vaccine	-13.7293
forgiv	-13.7293
8825	-13.7294
versi	-13.7295
▁Mild	-13.7296
insula	-13.7304
▁Chile	-13.7305
▁Stall	-13.7305
▁whistle	-13.7305
▁acquir	-13.7305
▁Workers	-13.7309
rumb	-13.7311
berg	-13.7311
ality	-13.7313
urprise	-13.7313
▁Raise	-13.7314
▁Boil	-13.7317
boil	-13.7318
later	-13.7323
▁ru	-13.7323
▁2.	-13.7329
gnet	-13.7333
▁dread	-13.7333
674	-13.7336
▁bushy	-13.7338
▁cresc	-13.7339
▁expose	-13.7343
trot	-13.7344
▁hygien	-13.7344
chest	-13.7345
▁Reuni	-13.7351
▁Northe	-13.7351
▁Feeling	-13.7353
▁jumpe	-13.7358
nformation	-13.7363
▁Deman	-13.7367
344	-13.7367
Co	-13.737
▁Lad	-13.7374
▁Draw	-13.7374
▁transship	-13.7376
▁slop	-13.7377
ENT	-13.7379
▁drinker	-13.7379
RS	-13.7381
▁Depo	-13.7382
▁Interior	-13.7383
▁jin	-13.7384
▁advert	-13.7387
▁cont	-13.7389
▁muff	-13.7398
▁Atla	-13.7398
eturn	-13.7401
▁tol	-13.7402
ride	-13.7413
mid	-13.7419
▁Dal	-13.742
lear	-13.742
▁lark	-13.742
oul	-13.7424
▁forum	-13.7427
eduction	-13.7428
▁preach	-13.7429
61	-13.743
▁Pla	-13.7432
4578	-13.7434
▁sigh	-13.7436
▁Sy	-13.7437
lay	-13.7451
educat	-13.7458
▁withstand	-13.746
▁revise	-13.7462
terling	-13.7465
▁snowb	-13.747
▁paddl	-13.7471
▁boom	-13.7472
▁Bori	-13.7475
▁Toni	-13.7476
▁canoe	-13.748
alize	-13.7491
800	-13.7495
▁exc	-13.7496
▁pol	-13.75
▁nin	-13.75
▁browser	-13.75
▁shipper	-13.7508
weed	-13.7509
▁367	-13.7512
▁brid	-13.7513
review	-13.7513
▁Dial	-13.7516
▁Jerr	-13.752
rare	-13.7522
ES	-13.7522
alph	-13.7524
▁gi	-13.7531
▁Ru	-13.7532
relate	-13.7533
▁gran	-13.7534
fel	-13.7538
alogue	-13.754
pron	-13.754
▁linen	-13.7541
▁roa	-13.7544
▁Player	-13.7545
▁Potato	-13.7558
ockroach	-13.7559
▁ea	-13.7561
irming	-13.7564
▁555	-13.7566
▁Oka	-13.7567
▁Iran	-13.7573
upplies	-13.7574
crap	-13.7576
▁delica	-13.7588
▁Begin	-13.7588
awkin	-13.759
▁spong	-13.7593
▁Massa	-13.7593
adia	-13.7594
Lauren	-13.7601
▁crave	-13.7602
▁Leon	-13.7604
▁burner	-13.7606
▁Fay	-13.7611
▁partic	-13.7621
▁cor	-13.7626
layers	-13.7626
▁clone	-13.7627
q	-13.7628
▁Kent	-13.7637
▁Tit	-13.7644
▁economi	-13.7652
▁DS	-13.7652
▁Swi	-13.7654
▁spike	-13.7655
▁Judg	-13.7659
ccent	-13.7663
dancing	-13.7665
iff	-13.7665
siness	-13.7666
▁ME	-13.7669
▁spo	-13.7674
▁Hack	-13.7675
unnies	-13.768
▁frat	-13.7682
chos	-13.7693
▁Pi	-13.7708
▁Save	-13.7709
▁refine	-13.7713
▁translate	-13.7715
glass	-13.7715
▁expens	-13.7718
cholarship	-13.772
▁litera	-13.7722
PD	-13.7727
▁Richards	-13.773
▁ser	-13.773
lims	-13.7731
clear	-13.7732
▁Dion	-13.7733
thos	-13.7735
▁feeding	-13.774
every	-13.7744
▁Arc	-13.7747
▁AA	-13.775
illin	-13.7754
▁Dup	-13.7754
tze	-13.7756
ism	-13.7757
▁irre	-13.7759
▁posh	-13.7764
zzy	-13.7767
rig	-13.7772
Wh	-13.7775
▁abac	-13.7785
▁generate	-13.7785
▁Weren	-13.7786
apped	-13.7789
▁em	-13.779
▁Nanc	-13.7793
ercise	-13.7799
▁birdie	-13.7804
luck	-13.7805
account	-13.7811
bias	-13.7813
▁Shoot	-13.7815
▁Place	-13.7815
utlet	-13.7834
▁wing	-13.784
raise	-13.7841
▁minim	-13.7847
▁rig	-13.7853
▁Simpl	-13.7855
itten	-13.7857
raig	-13.7859
▁Yangsh	-13.7864
▁suffic	-13.7867
▁Ashl	-13.7868
8-	-13.787
equ	-13.7879
nograph	-13.7886
ontract	-13.7888
▁scal	-13.7889
memor	-13.7889
mmmm	-13.7898
▁constitu	-13.7899
▁snows	-13.7907
▁edg	-13.7909
▁Act	-13.7911
▁Jay	-13.7911
▁stag	-13.7922
backs	-13.7925
▁overcharg	-13.7926
.5	-13.7938
▁camel	-13.794
Wait	-13.7942
ivor	-13.7952
iggle	-13.7957
▁recreat	-13.7957
▁inclin	-13.7964
▁cracke	-13.7964
ipin	-13.797
▁MB	-13.797
ocat	-13.7971
644	-13.7974
IP	-13.7978
ocket	-13.7978
leg	-13.7979
haven	-13.7987
ply	-13.7989
lieve	-13.799
lab	-13.8007
wa	-13.801
ranch	-13.8011
pr	-13.8019
▁Provi	-13.8028
▁cares	-13.803
pt	-13.8031
oni	-13.8037
▁reconcile	-13.8041
▁summarize	-13.8042
anato	-13.805
sound	-13.8054
▁Maris	-13.8061
▁des	-13.8064
sopho	-13.8067
328	-13.8082
gen	-13.8083
▁seize	-13.8084
▁develope	-13.8091
itable	-13.8092
▁unsatisf	-13.81
▁Suite	-13.8101
zum	-13.8101
rbag	-13.8103
▁hu	-13.8103
CE	-13.8108
▁stronge	-13.8109
tric	-13.811
▁gullib	-13.8112
relat	-13.8116
▁alto	-13.8125
ammer	-13.8126
▁Carn	-13.8128
▁chan	-13.8132
stuff	-13.8133
▁16.00	-13.8135
▁wax	-13.8136
minant	-13.8137
fax	-13.8145
▁executi	-13.8153
▁overs	-13.8156
▁offside	-13.8157
learn	-13.8164
wash	-13.8164
▁4.	-13.8166
urance	-13.8169
pun	-13.8172
raveller	-13.8174
▁Works	-13.8175
▁ye	-13.8181
▁resu	-13.8182
▁pitche	-13.8186
▁wra	-13.819
▁deca	-13.8199
arter	-13.8205
ingpo	-13.8207
▁3.1	-13.8207
gue	-13.8207
367	-13.8208
arant	-13.8222
smok	-13.8225
hydrate	-13.8227
222	-13.8233
▁Ce	-13.8252
after	-13.8271
search	-13.8276
sition	-13.8277
tickets	-13.828
FR	-13.8287
black	-13.8291
▁app	-13.8293
shi	-13.8298
Lin	-13.8299
cement	-13.8308
efugee	-13.8309
▁Appli	-13.8316
▁1.8	-13.832
▁162	-13.8323
elief	-13.8323
double	-13.8326
acks	-13.8331
hildren	-13.8335
eviation	-13.8342
often	-13.8342
ambo	-13.8351
▁alter	-13.8355
gram	-13.8356
exchange	-13.8362
▁te	-13.8371
▁qu	-13.8371
anni	-13.8373
jack	-13.838
▁tent	-13.8382
raftsman	-13.8383
▁105	-13.8383
counts	-13.8383
▁entertaine	-13.8386
llow	-13.8391
▁Magg	-13.8397
▁wink	-13.8401
880	-13.8402
difference	-13.8404
▁Mill	-13.8421
cean	-13.8426
▁earthquakes	-13.8433
▁royal	-13.8436
ore	-13.8457
▁Cat	-13.8466
Okay	-13.8471
avi	-13.8473
▁Off	-13.8476
ocus	-13.8479
hit	-13.8495
ashing	-13.8496
▁Heath	-13.8497
▁indicat	-13.85
ums	-13.8513
ttitude	-13.8515
ites	-13.852
▁overcom	-13.8521
▁Conno	-13.8531
▁Tro	-13.8533
▁Mass	-13.8542
elemarket	-13.8544
▁stati	-13.8549
▁typewrit	-13.855
iron	-13.855
▁hack	-13.8553
usual	-13.8557
▁integrate	-13.8557
hings	-13.8561
▁sharpen	-13.8567
shes	-13.8571
▁coppe	-13.8572
nter	-13.8585
orted	-13.8595
iterature	-13.86
▁defi	-13.8607
▁Ric	-13.8622
▁revolve	-13.8627
▁bookings	-13.8628
▁Visi	-13.8633
▁merry	-13.8635
▁grader	-13.8647
egree	-13.8657
▁Seller	-13.866
ibbe	-13.8661
sweet	-13.8671
▁ton	-13.868
sports	-13.8681
friends	-13.8688
atio	-13.8697
Hmm	-13.871
▁hitch	-13.871
.7	-13.8714
▁stipulate	-13.8721
▁geographic	-13.8724
resume	-13.8734
▁Julian	-13.8738
▁Chou	-13.876
egrett	-13.876
▁Hild	-13.876
▁dan	-13.8763
Ah	-13.877
▁byte	-13.8776
▁Bear	-13.879
ortable	-13.8794
▁Cris	-13.8797
percent	-13.8804
best	-13.8805
ials	-13.8806
establishe	-13.8823
ction	-13.8825
44	-13.8827
idea	-13.8833
abo	-13.8844
tsun	-13.8848
oza	-13.8849
▁GP	-13.8854
74	-13.8855
uts	-13.8859
store	-13.886
▁Sus	-13.8864
orner	-13.8865
bel	-13.8871
▁arise	-13.8878
▁conce	-13.8886
ify	-13.8892
ored	-13.8897
ber	-13.8898
105	-13.89
▁graz	-13.8903
▁excit	-13.8907
mb	-13.8908
▁gentl	-13.8912
-555-	-13.8912
their	-13.8917
ague	-13.8923
▁sideb	-13.8935
ural	-13.8938
▁Seal	-13.8938
layer	-13.8941
spel	-13.8947
▁graph	-13.8948
▁ros	-13.8964
▁Haml	-13.8976
Mike	-13.8978
nner	-13.8982
zing	-13.8982
▁lectur	-13.8984
eeping	-13.8995
rty	-13.9
▁phenomena	-13.901
alar	-13.901
▁Powe	-13.9017
▁crook	-13.9019
hav	-13.9021
▁Add	-13.9028
su	-13.9042
▁Nickl	-13.9053
dmitted	-13.9056
▁stu	-13.9057
pressure	-13.9072
▁dictat	-13.9078
lls	-13.9082
matic	-13.9084
dish	-13.9087
enny	-13.9092
▁rut	-13.9093
▁permissi	-13.9105
▁Ram	-13.9113
mistr	-13.9115
speed	-13.912
▁Ji	-13.9122
quit	-13.9127
▁Bud	-13.9127
▁exclude	-13.9146
inn	-13.9148
hibitor	-13.9153
broad	-13.9154
gg	-13.9154
professional	-13.9155
▁Rub	-13.9163
apital	-13.9163
aris	-13.9166
urity	-13.9175
mmed	-13.9175
cep	-13.9179
▁Dome	-13.9192
fifteen	-13.9193
uggle	-13.9195
▁Dry	-13.92
rough	-13.92
rist	-13.92
Should	-13.9208
▁Fan	-13.921
▁whe	-13.9212
▁haste	-13.9212
full	-13.9216
process	-13.9222
▁compet	-13.9223
▁boxer	-13.9224
▁ignoran	-13.9226
▁functional	-13.9227
▁dent	-13.9228
ening	-13.923
pper	-13.9235
tai	-13.9235
ola	-13.9237
hangers	-13.9241
▁flier	-13.9247
▁drow	-13.9248
wei	-13.9251
▁planne	-13.9268
urns	-13.9276
tension	-13.928
▁tuck	-13.9283
teral	-13.9287
traditional	-13.9292
▁rank	-13.93
rise	-13.931
cycl	-13.9344
ncorporate	-13.9344
experience	-13.9349
cots	-13.9357
▁Sor	-13.9362
hone	-13.9363
lina	-13.9366
wrapp	-13.9367
▁discharg	-13.9382
▁Hil	-13.9384
▁Care	-13.939
mple	-13.9395
▁plunge	-13.9395
bud	-13.9403
▁ping	-13.9419
changed	-13.9425
▁playe	-13.9436
▁stresse	-13.9437
steak	-13.9448
sub	-13.9458
▁identif	-13.9461
noon	-13.9463
321	-13.9466
Or	-13.9467
aig	-13.9468
▁Mil	-13.947
▁trem	-13.947
▁MI	-13.9472
▁complian	-13.9473
▁stoo	-13.9478
RM	-13.948
pleasant	-13.9481
▁raci	-13.9481
filled	-13.9503
perhaps	-13.9504
▁Fare	-13.9505
luff	-13.9523
urb	-13.953
▁678	-13.953
harp	-13.9534
▁24.	-13.9534
con	-13.9537
tons	-13.9538
lier	-13.9548
▁Basi	-13.9553
sa	-13.9555
▁documentari	-13.9565
export	-13.9565
▁Tha	-13.9567
ccounting	-13.9569
eel	-13.9581
▁Settl	-13.9583
▁555-	-13.9584
▁Kai	-13.959
357	-13.9597
PC	-13.9606
aron	-13.9606
parties	-13.9608
left	-13.961
includ	-13.9613
▁Fi	-13.9613
danger	-13.9623
▁butt	-13.9626
cada	-13.963
country	-13.9635
▁Sti	-13.9641
▁circulat	-13.9646
patient	-13.9647
xtension	-13.9649
▁captur	-13.9649
rin	-13.9679
hem	-13.9682
▁mary	-13.9686
▁4.0	-13.9688
licens	-13.9697
ige	-13.9698
logge	-13.9701
▁dash	-13.9718
lame	-13.972
▁peep	-13.9723
spic	-13.9731
cafe	-13.9737
▁yahoo	-13.9743
▁Admit	-13.9744
inspection	-13.9756
▁unsu	-13.9757
llian	-13.9757
▁Cost	-13.9763
llege	-13.9767
among	-13.9768
ini	-13.9771
tz	-13.9778
xcept	-13.9781
rah	-13.9795
hir	-13.9796
keeper	-13.9798
▁carp	-13.9798
▁Ern	-13.9812
▁ori	-13.9814
Play	-13.9821
520	-13.9826
born	-13.9829
▁pun	-13.9831
pet	-13.9832
▁intentional	-13.9837
information	-13.9842
▁pros	-13.9843
▁overbook	-13.9843
203	-13.9852
mark	-13.9856
oster	-13.9862
▁revolv	-13.9868
▁Ber	-13.9869
track	-13.9869
Try	-13.9876
hemist	-13.9876
▁acc	-13.9884
▁87	-13.9884
security	-13.9887
▁collecti	-13.9889
▁remo	-13.9903
▁numb	-13.9907
▁unc	-13.9916
opening	-13.9918
omy	-13.9921
▁Agree	-13.9925
rnet	-13.9935
igh	-13.9936
nation	-13.9936
arrangement	-13.9937
▁liber	-13.9943
colors	-13.9945
▁flexi	-13.996
▁chap	-13.9965
▁conn	-13.9975
tooth	-13.9978
▁ceme	-13.9979
spend	-13.9981
president	-13.9984
rts	-13.9992
James	-13.9993
sses	-13.9997
▁immigrat	-13.9999
antern	-13.9999
xing	-14.0003
▁Role	-14.0008
demand	-14.0009
stry	-14.001
protect	-14.0016
emporar	-14.0026
▁earning	-14.0029
organization	-14.003
▁che	-14.0037
Walk	-14.0047
painting	-14.0051
aire	-14.0052
frie	-14.0059
▁bushe	-14.0063
annel	-14.0064
▁Collect	-14.0067
▁drill	-14.0086
▁preventi	-14.0089
▁tortur	-14.0089
inter	-14.0089
curr	-14.0091
native	-14.0092
Bo	-14.0097
who	-14.0097
raction	-14.0101
Show	-14.0101
▁cra	-14.0109
close	-14.011
▁realiz	-14.0113
▁Plea	-14.0113
oral	-14.0118
Second	-14.0123
tatue	-14.0126
▁unfi	-14.0131
ntermedia	-14.0134
▁Wats	-14.0144
▁Ac	-14.0154
acy	-14.0159
hur	-14.0162
confidence	-14.0175
▁ease	-14.0176
onnai	-14.0183
peak	-14.0188
▁Bund	-14.0195
recommendation	-14.0196
▁incorporate	-14.0202
uardian	-14.0208
itive	-14.0208
ib	-14.0211
▁Pier	-14.0212
▁Mer	-14.0214
▁Berm	-14.0217
wich	-14.0219
ures	-14.0221
▁Tel	-14.0222
master	-14.0227
wenties	-14.0235
▁obs	-14.0236
leader	-14.024
obbie	-14.0241
fine	-14.0242
Cook	-14.0243
sharp	-14.0249
lton	-14.0251
cise	-14.0252
▁orch	-14.0253
jewel	-14.0256
function	-14.0259
edal	-14.0259
enni	-14.0261
examination	-14.0262
bid	-14.0262
▁WA	-14.0272
▁Gali	-14.0276
▁Mit	-14.0276
sts	-14.0277
▁Impressi	-14.0278
hist	-14.0281
grown	-14.0294
communication	-14.0294
warming	-14.0295
dine	-14.0298
enjoy	-14.0313
-45	-14.0314
▁wiz	-14.0319
birth	-14.0321
gold	-14.0325
circle	-14.0326
▁overtake	-14.0328
operate	-14.0333
52	-14.034
▁concentrat	-14.035
bab	-14.0353
baker	-14.0353
shadow	-14.0358
cademic	-14.036
sting	-14.0368
cor	-14.0369
▁thermos	-14.0369
▁sam	-14.0374
1-	-14.0374
commercial	-14.0374
perform	-14.0375
wi	-14.0378
▁stimul	-14.0387
arin	-14.0391
▁dork	-14.0396
▁Spl	-14.0398
▁bak	-14.0408
▁vir	-14.0409
conduct	-14.0411
eolog	-14.0412
polish	-14.0415
▁radi	-14.0419
touch	-14.0421
castle	-14.0426
basin	-14.0428
▁Sim	-14.0435
consi	-14.0436
mins	-14.0436
▁Les	-14.0449
eh	-14.0455
shame	-14.0462
unction	-14.0463
▁cas	-14.0463
rds	-14.0468
▁fable	-14.0475
Clean	-14.0475
▁Wy	-14.0478
shoe	-14.0479
afraid	-14.0481
rhea	-14.0485
▁teet	-14.0486
dail	-14.0487
▁Grow	-14.0488
388	-14.0488
lift	-14.049
arrie	-14.0499
DP	-14.0499
recorder	-14.0499
continent	-14.0505
Has	-14.0506
tional	-14.0514
▁shi	-14.0521
Huang	-14.0524
Insurance	-14.0526
accurate	-14.0535
eas	-14.0536
▁Colo	-14.0543
hoo	-14.0545
ort	-14.0546
Meli	-14.0552
fighter	-14.0555
nty	-14.0555
▁servi	-14.0558
▁Economi	-14.0562
▁gulli	-14.0563
Jackson	-14.0569
burst	-14.057
rive	-14.0574
▁releas	-14.0576
processing	-14.0577
net	-14.0579
▁faxe	-14.0582
memora	-14.0584
stopp	-14.0586
6.00	-14.0592
Roll	-14.0594
crush	-14.0596
▁Vane	-14.0598
2210	-14.0603
happen	-14.0609
sleeve	-14.061
temper	-14.061
▁ther	-14.0614
▁smashe	-14.0623
conscious	-14.0627
treatment	-14.063
MP	-14.0633
hazard	-14.0634
speaker	-14.0635
carving	-14.0636
saw	-14.0637
▁printe	-14.0638
lish	-14.0638
rook	-14.064
ique	-14.0644
plain	-14.0647
inu	-14.0651
mediate	-14.0655
evaluat	-14.0657
▁messag	-14.0659
Jess	-14.066
suppose	-14.0671
tted	-14.0676
tariff	-14.0684
sel	-14.0687
▁diver	-14.0688
Aren	-14.0691
wave	-14.0695
▁Mul	-14.0697
▁gems	-14.0699
San	-14.0701
▁CI	-14.0702
Rob	-14.0704
Books	-14.0707
die	-14.0709
▁Cardi	-14.0714
rity	-14.0719
▁Laugh	-14.072
▁Vari	-14.0725
▁Fir	-14.0725
dao	-14.0732
nks	-14.0734
ambitio	-14.074
lose	-14.0741
nia	-14.0755
ox	-14.0762
sual	-14.0768
contractor	-14.0775
poster	-14.0776
alon	-14.0778
mans	-14.0794
ished	-14.0794
▁accumulat	-14.0795
210	-14.0795
etro	-14.0797
tivity	-14.0805
32.	-14.0812
des	-14.0812
eken	-14.0812
shelf	-14.0816
rami	-14.0828
▁hoo	-14.0832
ava	-14.0836
hope	-14.0837
quare	-14.0841
▁acidi	-14.0851
▁hydra	-14.0859
▁Sens	-14.0863
mbass	-14.0863
automat	-14.0864
hirl	-14.0866
▁parl	-14.0871
coop	-14.0873
flight	-14.0874
veral	-14.0876
urs	-14.0879
Who	-14.0886
RA	-14.0891
▁opt	-14.0891
RG	-14.0892
urger	-14.0897
▁exaggerate	-14.09
▁Ant	-14.0902
rite	-14.0904
▁distributors	-14.0905
▁Pre	-14.0923
▁behavi	-14.0925
▁Scholar	-14.0926
dress	-14.093
ripe	-14.0932
▁irritate	-14.0939
▁Rho	-14.094
▁bro	-14.0944
asty	-14.0949
▁hoar	-14.0958
▁sy	-14.096
allow	-14.0975
▁span	-14.0983
dock	-14.099
sty	-14.0991
icide	-14.0999
▁Promi	-14.0999
plan	-14.1001
Patric	-14.1003
stration	-14.1003
considerat	-14.1009
hunt	-14.1019
bank	-14.1022
dida	-14.1028
Jing	-14.1033
▁cand	-14.1036
gains	-14.104
▁preservati	-14.1046
Turnb	-14.1048
▁Winni	-14.1051
CP	-14.1051
pite	-14.1053
roller	-14.1054
rees	-14.1061
▁dictati	-14.1077
azy	-14.1088
▁Sting	-14.1089
ccording	-14.1089
82	-14.1092
statement	-14.1117
▁Cond	-14.1125
▁mah	-14.1126
content	-14.1129
airman	-14.1134
▁lazi	-14.1136
ff	-14.1138
shield	-14.1151
▁popp	-14.1151
▁pinche	-14.1169
terminat	-14.1179
humb	-14.1188
wait	-14.1189
Couldn	-14.119
scrim	-14.1191
aps	-14.1195
etail	-14.12
ect	-14.1202
▁hol	-14.1208
▁Rang	-14.121
lam	-14.1224
enc	-14.1234
mature	-14.1235
▁Crea	-14.1244
▁flak	-14.1245
incidental	-14.1252
▁NAS	-14.1254
▁ignor	-14.1255
main	-14.1265
▁instruct	-14.1273
▁fascinate	-14.1279
▁236	-14.129
▁northe	-14.1291
drops	-14.1295
▁Mix	-14.1298
everyone	-14.1321
▁8.	-14.1324
▁pools	-14.1327
guar	-14.1327
▁pac	-14.1329
▁Eu	-14.133
▁stre	-14.1334
pos	-14.1335
3.2	-14.134
342	-14.1347
▁cust	-14.135
▁330	-14.1366
curf	-14.137
chari	-14.1375
▁1.2	-14.1376
56	-14.1376
grad	-14.1378
tal	-14.139
holder	-14.1392
UV	-14.1402
buyer	-14.1402
prise	-14.1415
▁recogniz	-14.1432
▁strik	-14.144
others	-14.1453
onkey	-14.1457
▁Interest	-14.1458
▁fatt	-14.1458
dis	-14.146
wan	-14.1461
▁smo	-14.1461
toleran	-14.1462
ancer	-14.1465
sleepy	-14.1472
▁Ski	-14.1486
Fi	-14.1497
▁SU	-14.1501
▁philosophi	-14.1503
pard	-14.1504
▁enclos	-14.151
▁Emer	-14.151
uzh	-14.1513
owadays	-14.1518
Wu	-14.1522
tire	-14.1525
chat	-14.1525
afternoon	-14.1534
▁hygieni	-14.1542
▁asia	-14.1552
▁fogg	-14.1554
olars	-14.1564
▁seasonal	-14.1566
ved	-14.1568
vol	-14.157
▁certificat	-14.1571
▁recita	-14.1575
▁HA	-14.1578
▁Pic	-14.1585
▁consul	-14.1586
▁Lis	-14.1586
OH	-14.1596
rival	-14.1599
▁acqui	-14.1601
▁202	-14.1602
▁Agen	-14.1602
ind	-14.1611
▁alway	-14.1614
Mary	-14.1617
ench	-14.1617
arnish	-14.162
▁whistl	-14.1621
▁Abra	-14.1624
mar	-14.1626
▁71	-14.1627
hank	-14.1627
▁Oo	-14.1628
win	-14.1635
anned	-14.1639
zhu	-14.1644
▁Rest	-14.1649
▁authoriz	-14.1652
▁Lit	-14.1655
olence	-14.1659
lue	-14.1664
▁tasti	-14.1667
▁bask	-14.1669
▁tum	-14.1675
▁misl	-14.1684
feeling	-14.1687
utter	-14.1687
▁Clo	-14.1691
▁Pav	-14.1691
bs	-14.1693
availab	-14.1699
anda	-14.1721
▁Spic	-14.1724
hase	-14.1726
Po	-14.1728
738	-14.1742
▁deduc	-14.1751
azi	-14.1753
116	-14.1765
ider	-14.1769
▁raisin	-14.1771
eats	-14.1771
.05	-14.1772
rack	-14.1772
arvelous	-14.1777
ared	-14.1779
etary	-14.1784
ruit	-14.1789
▁preci	-14.1791
okou	-14.1792
alth	-14.1799
121	-14.1805
rum	-14.1808
aching	-14.1811
earing	-14.1813
▁prim	-14.1813
▁refreshe	-14.1816
dep	-14.1816
▁lodg	-14.1818
▁Pit	-14.1822
▁Ash	-14.1824
ator	-14.1824
▁thr	-14.1826
▁Neal	-14.1829
atherin	-14.1832
ads	-14.1835
▁IV	-14.1838
▁nigh	-14.1838
standard	-14.1839
YE	-14.184
▁Psycho	-14.1843
▁Tyl	-14.1844
decide	-14.1845
▁Atm	-14.185
▁rout	-14.1852
arton	-14.1858
▁Sala	-14.1859
▁googl	-14.186
whe	-14.186
▁circumstance	-14.1862
▁commerc	-14.1866
▁450	-14.1869
▁terrif	-14.1872
▁sequ	-14.1876
▁117	-14.1881
▁Shop	-14.1881
▁quart	-14.1882
▁chor	-14.1887
ccident	-14.1887
▁Sin	-14.1889
▁satur	-14.1895
▁whit	-14.1896
▁Rivers	-14.1901
tleneck	-14.1903
rac	-14.1903
lcohol	-14.1904
▁Soft	-14.191
▁Evan	-14.191
chun	-14.1911
434	-14.1913
▁Weigh	-14.1914
▁Touris	-14.1917
calling	-14.1917
▁Mag	-14.1925
▁sip	-14.1926
lumin	-14.1927
▁liv	-14.1927
slides	-14.193
▁pee	-14.1934
iminal	-14.1939
▁Fee	-14.194
▁capita	-14.1942
uc	-14.1943
▁reproduc	-14.1947
ni	-14.1947
▁mari	-14.1947
uggl	-14.1947
▁grandda	-14.1948
eague	-14.195
uppie	-14.1954
▁nutri	-14.1955
▁bough	-14.1957
▁subl	-14.1957
▁cruis	-14.1958
▁significan	-14.1962
jective	-14.1964
ozen	-14.1965
▁bur	-14.1966
clude	-14.197
▁comprehen	-14.1971
aud	-14.1973
▁Chap	-14.1973
leepyhead	-14.1975
▁Residen	-14.1977
▁teenage	-14.1977
hol	-14.198
▁haggl	-14.1983
▁transparen	-14.1984
▁sno	-14.1984
▁simul	-14.1985
▁elegan	-14.1986
mplifie	-14.1986
▁snap	-14.1988
▁mover	-14.1988
otivate	-14.1992
▁inde	-14.1996
script	-14.1997
▁kidnappe	-14.1997
▁Fer	-14.1999
works	-14.2003
void	-14.2004
hrimp	-14.2004
▁attendan	-14.2007
▁Radi	-14.2009
▁disast	-14.2013
▁shred	-14.2014
▁innovati	-14.2015
▁disgu	-14.2016
▁Copy	-14.2016
inct	-14.2017
▁psych	-14.2018
ference	-14.2021
▁Marr	-14.2022
iscrepanc	-14.2024
ivorce	-14.2025
▁emphasi	-14.2026
ccasionally	-14.2027
▁consumpti	-14.2027
EE	-14.2028
umpling	-14.2028
estination	-14.2028
ilgrimage	-14.2028
avilion	-14.2029
rivate	-14.203
ounselor	-14.203
▁drastic	-14.2031
638	-14.2031
rinciple	-14.2031
imitation	-14.2032
▁Triumph	-14.2032
▁sluggish	-14.2032
hhhhhhh	-14.2032
incarnate	-14.2032
▁251775	-14.2032
▁423-66	-14.2032
▁Aerobic	-14.2032
▁Barksdale	-14.2032
▁Relative	-14.2032
▁Supervisor	-14.2032
▁Venezuela	-14.2032
▁ambassador	-14.2032
▁charcoal	-14.2032
▁conglomerate	-14.2032
▁dinosaur	-14.2032
▁elephant	-14.2032
▁epidemic	-14.2032
▁fumigate	-14.2032
▁immortal	-14.2032
▁khaki	-14.2032
▁lesbian	-14.2032
▁strenuous	-14.2032
▁unanimous	-14.2032
▁veterinar	-14.2032
▁Origin	-14.2032
▁bullfight	-14.2032
▁Pistol	-14.2032
▁Speech	-14.2032
▁Spirit	-14.2032
▁System	-14.2032
▁Tzatziki	-14.2032
▁paramedics	-14.2032
▁snapshot	-14.2032
-331-	-14.2032
▁Automatic	-14.2032
▁Certainty	-14.2032
▁croaky	-14.2032
▁recuperat	-14.2032
666777	-14.2032
▁Magazine	-14.2032
▁fatigue	-14.2032
▁Examination	-14.2032
▁Indonesia	-14.2032
▁Electric	-14.2032
▁Theoretical	-14.2032
▁Hubert	-14.2032
▁reciproca	-14.2032
▁acrobat	-14.2032
▁peacemaker	-14.2032
▁Inspiration	-14.2032
▁mammal	-14.2032
▁carpenter	-14.2032
▁persecut	-14.2032
▁Document	-14.2032
▁gauge	-14.2032
▁Shadow	-14.2032
▁Maxine	-14.2032
▁batik	-14.2032
▁fraud	-14.2032
▁vigor	-14.2032
▁smuggl	-14.2032
▁distension	-14.2032
aaaa	-14.2032
▁messenger	-14.2032
▁caterpillar	-14.2032
▁handshake	-14.2032
▁portray	-14.2032
Multi	-14.2033
▁discreet	-14.2033
▁enamel	-14.2033
▁bastard	-14.2033
▁nanometer	-14.2033
▁Briggs	-14.2033
▁Household	-14.2033
▁Minorit	-14.2033
▁civiliz	-14.2033
ILL	-14.2033
▁handicraft	-14.2033
▁Stuff	-14.2033
▁Popeye	-14.2033
▁deceiv	-14.2033
▁scallion	-14.2033
▁sunburn	-14.2034
▁1.3	-14.2034
▁drastically	-14.2034
▁endowment	-14.2034
▁Wallace	-14.2034
376	-14.2034
▁Initial	-14.2034
elegation	-14.2034
▁pavement	-14.2034
▁shortbread	-14.2034
▁humanistic	-14.2034
▁1405	-14.2034
▁undervalue	-14.2034
Burton	-14.2035
▁incompeten	-14.2035
ronize	-14.2035
grapher	-14.2035
▁fertil	-14.2035
▁plummet	-14.2035
▁unpre	-14.2035
▁Sitcom	-14.2035
▁MUS	-14.2035
▁Newspaper	-14.2036
▁Cherry	-14.2036
▁misplace	-14.2036
▁Jiansh	-14.2036
▁627	-14.2036
▁scrub	-14.2037
▁rainfall	-14.2037
▁electron	-14.2037
-228	-14.2037
▁233	-14.2037
▁McDo	-14.2038
▁Lower	-14.2038
▁crony	-14.2038
▁1425	-14.2038
672	-14.2038
▁Goldman	-14.2038
▁impound	-14.2039
▁brisk	-14.2039
▁323	-14.2039
▁Dolphin	-14.204
▁repetition	-14.204
ailure	-14.204
▁Kimble	-14.204
▁champ	-14.204
uiet	-14.2041
▁instalment	-14.2041
pus	-14.2041
▁Ordinar	-14.2042
opul	-14.2042
▁Viole	-14.2042
nxiu	-14.2043
▁systematic	-14.2043
▁notariz	-14.2044
▁squish	-14.2044
▁BET	-14.2045
▁surg	-14.2045
▁Label	-14.2045
▁evade	-14.2045
▁nibbl	-14.2046
▁Cafe	-14.2046
▁Cranberr	-14.2046
▁Snake	-14.2046
SEE	-14.2046
▁rearrange	-14.2046
hanged	-14.2047
▁Crown	-14.2047
▁breakthrough	-14.2047
▁overstock	-14.2047
▁remodel	-14.2048
assic	-14.2048
scape	-14.2048
hstan	-14.2048
▁crosstown	-14.2048
▁immatur	-14.2048
▁innovation	-14.2049
▁Speed	-14.2049
▁songbook	-14.2049
▁seduce	-14.205
rambl	-14.205
envir	-14.2051
▁presume	-14.2051
▁scram	-14.2052
chael	-14.2052
▁gasket	-14.2052
▁tablecloth	-14.2052
▁Jac	-14.2052
viva	-14.2053
▁1205	-14.2054
▁arbitrator	-14.2054
▁survi	-14.2055
uzzi	-14.2056
brittle	-14.2058
Ban	-14.2058
iliation	-14.2058
▁gala	-14.2058
▁jaw	-14.2059
dial	-14.206
tograph	-14.206
mercials	-14.2061
▁Wrig	-14.2061
▁gla	-14.2063
asses	-14.2063
-64	-14.2063
856	-14.2063
▁Clint	-14.2064
▁Register	-14.2064
elope	-14.2064
▁inhale	-14.2067
▁Carto	-14.2067
▁isolat	-14.2068
munic	-14.2069
solin	-14.2069
▁marble	-14.2069
▁pudd	-14.207
▁rehearsal	-14.207
eflect	-14.207
353	-14.207
petition	-14.2071
▁Brother	-14.2071
cumen	-14.2072
abl	-14.2072
▁Draft	-14.2073
▁611	-14.2073
▁puppet	-14.2074
meet	-14.2074
▁doggy	-14.2074
▁pierc	-14.2075
▁postman	-14.2076
▁rotate	-14.2076
illan	-14.2076
▁chic	-14.2076
▁laundr	-14.2076
346	-14.2076
▁Marsh	-14.2078
ption	-14.2078
▁Pond	-14.2078
▁dazzl	-14.2078
▁slant	-14.2079
▁gorge	-14.208
hotograph	-14.2081
▁consequen	-14.2082
ablis	-14.2082
▁evident	-14.2083
undred	-14.2083
▁patroniz	-14.2084
▁posit	-14.2084
▁err	-14.2084
avelin	-14.2084
▁renovation	-14.2086
888	-14.2086
▁Roche	-14.2087
▁Chef	-14.2092
emographic	-14.2092
ides	-14.2092
▁siz	-14.2092
duous	-14.2093
revious	-14.2095
▁maj	-14.2095
▁standby	-14.2096
▁Lush	-14.2096
▁plaster	-14.2098
▁sleepyhead	-14.2099
rais	-14.2099
lid	-14.21
▁grace	-14.21
▁til	-14.2101
▁Max	-14.2103
▁Snip	-14.2104
jour	-14.2104
lives	-14.2104
▁Marshall	-14.2104
▁FW	-14.2105
▁carbo	-14.2105
▁610	-14.2107
Alb	-14.2108
▁dupl	-14.2108
lobs	-14.2113
▁borrowe	-14.2113
▁caterer	-14.2119
▁booklet	-14.212
▁rapper	-14.212
▁Versac	-14.2122
▁circum	-14.2123
nomination	-14.2124
▁preaching	-14.2127
▁ambi	-14.2127
▁Aug	-14.2128
▁87.	-14.2128
ador	-14.2131
▁Phi	-14.2131
alog	-14.2133
pco	-14.2133
▁adv	-14.2133
kah	-14.2134
idney	-14.2141
▁unfa	-14.2141
▁DH	-14.2142
▁contestant	-14.2143
▁mist	-14.2143
tial	-14.2145
▁grownup	-14.2148
riorit	-14.2151
▁merge	-14.2152
affo	-14.2153
▁decre	-14.2154
▁omit	-14.2154
▁Auto	-14.2155
▁washroom	-14.2156
▁6710	-14.2157
crib	-14.2158
▁circulator	-14.2161
▁frig	-14.2165
▁Tourist	-14.2166
▁18.5	-14.2167
▁Lap	-14.217
▁windsurfer	-14.2172
▁comput	-14.2172
petite	-14.2173
▁ramp	-14.2174
recommend	-14.2177
-88	-14.2178
organize	-14.2179
▁Additional	-14.2182
▁remed	-14.2184
xes	-14.2185
design	-14.219
▁slum	-14.2191
168	-14.2191
▁rake	-14.2193
▁ballroom	-14.2193
alk	-14.2194
nniversar	-14.2195
▁furn	-14.2197
maid	-14.2198
Really	-14.2199
▁tempo	-14.22
retta	-14.2203
▁Twin	-14.2205
▁skinnie	-14.2208
▁Beast	-14.221
spy	-14.2212
uma	-14.2213
▁Miles	-14.2215
▁angel	-14.2215
▁tidie	-14.2215
▁disposa	-14.2216
addie	-14.2216
▁certify	-14.2218
▁Winner	-14.222
emic	-14.2222
▁DO	-14.2224
monious	-14.2225
dad	-14.2227
▁transformer	-14.2228
rapher	-14.223
▁cask	-14.2231
fro	-14.2234
eptic	-14.2235
▁Av	-14.2236
etective	-14.2238
▁constrict	-14.2239
▁Spend	-14.2239
165	-14.2239
▁cultivat	-14.224
ntern	-14.2241
latform	-14.2243
710	-14.2243
▁jol	-14.2247
laine	-14.2248
ancheng	-14.2249
▁Sanyu	-14.2251
nity	-14.2252
eeper	-14.2252
▁Airway	-14.2255
wrappe	-14.2257
▁alphabet	-14.226
▁pest	-14.2261
otte	-14.2267
octo	-14.2267
olite	-14.2272
pirat	-14.2272
▁wander	-14.2274
tari	-14.2279
▁fettuc	-14.2286
▁reef	-14.2289
▁coup	-14.2291
quake	-14.2293
.43	-14.2297
▁readers	-14.2298
▁Optim	-14.2298
▁casse	-14.23
▁tolerate	-14.23
ariff	-14.2302
brushe	-14.2303
▁legi	-14.2306
▁BM	-14.2315
▁Cri	-14.2316
▁sleepover	-14.2316
▁Songsh	-14.2316
elevision	-14.2321
▁stained	-14.2322
▁Sour	-14.2323
▁IC	-14.2329
▁Ang	-14.2338
▁TH	-14.2346
unk	-14.2353
▁destin	-14.2354
▁Thx	-14.2354
lley	-14.2355
partic	-14.236
▁squabble	-14.2361
▁pian	-14.2363
cade	-14.2368
▁Weiss	-14.2369
nstall	-14.237
▁teasing	-14.2373
poration	-14.2374
neak	-14.2375
▁sodium	-14.2377
omi	-14.2379
rson	-14.238
ontinue	-14.2383
▁DM	-14.2386
▁Cater	-14.2387
▁cape	-14.2392
dependent	-14.2393
ehind	-14.2393
▁230	-14.2397
▁fogs	-14.2398
licit	-14.2398
▁criticis	-14.2402
chance	-14.2403
763	-14.2405
302	-14.2408
4.	-14.2408
redict	-14.241
220	-14.2412
▁104	-14.2412
▁cul	-14.2414
afet	-14.2415
ress	-14.2417
▁Edw	-14.2418
cultivati	-14.2419
▁fuse	-14.2419
stands	-14.242
drink	-14.2421
▁Phy	-14.2421
▁inves	-14.2423
▁Carpe	-14.2424
aste	-14.2431
motivate	-14.2439
core	-14.244
ighter	-14.2441
pose	-14.2441
▁garnish	-14.2441
reign	-14.2446
-221	-14.2447
versati	-14.2458
honour	-14.2459
▁Bes	-14.2464
▁Kle	-14.2464
▁highlighter	-14.2466
▁commentat	-14.2466
▁23.	-14.2471
ntries	-14.2475
willing	-14.2475
pant	-14.2476
ortify	-14.2478
return	-14.2479
▁Davi	-14.2481
cue	-14.2486
▁genera	-14.2486
thought	-14.2488
freshmen	-14.2488
leaning	-14.249
spirat	-14.2491
▁flaw	-14.2497
lbert	-14.25
acko	-14.25
▁intent	-14.25
▁hijacke	-14.2508
▁prisoner	-14.2509
▁bleed	-14.2516
▁specifi	-14.2518
▁Curl	-14.2519
uthorit	-14.2524
▁limp	-14.2527
stero	-14.253
oor	-14.253
▁woun	-14.2531
avid	-14.2534
ishi	-14.2544
oba	-14.2546
▁Ava	-14.2548
21.3	-14.2551
▁floati	-14.2564
▁unde	-14.2567
▁clas	-14.2567
stinct	-14.257
ttach	-14.2571
bai	-14.2573
736	-14.2575
HU	-14.2583
hoe	-14.2584
▁Boo	-14.2588
▁aesthetic	-14.2595
86-	-14.2597
▁Romania	-14.2605
contract	-14.2609
▁fright	-14.261
▁commuter	-14.261
▁Lina	-14.2613
uzz	-14.2615
▁seash	-14.262
▁0.8	-14.2623
▁enc	-14.2652
odle	-14.2652
bedrooms	-14.2658
▁marina	-14.2659
▁Yah	-14.266
▁renown	-14.2662
Print	-14.2662
write	-14.2667
tunate	-14.2671
▁Carlo	-14.2673
ree	-14.2681
3-	-14.2682
Got	-14.2685
▁sn	-14.2692
izz	-14.27
ensive	-14.2701
▁Spice	-14.2704
outs	-14.2704
ov	-14.2709
igen	-14.271
vers	-14.2711
▁fris	-14.2713
products	-14.2716
cri	-14.2722
ndant	-14.2724
▁Cope	-14.2736
soon	-14.2739
▁exci	-14.274
doesn	-14.2744
ssive	-14.2744
▁Jewel	-14.2745
▁List	-14.2747
▁perfection	-14.2748
▁irritati	-14.2749
ser	-14.2749
hate	-14.2761
▁bach	-14.2761
▁remitte	-14.2762
char	-14.2767
▁Certificat	-14.2767
▁cremat	-14.2781
▁woodwork	-14.2786
336	-14.2789
reservation	-14.2801
loses	-14.2804
▁keepsake	-14.2805
New	-14.2811
▁Bure	-14.2811
omni	-14.2813
▁Belt	-14.2816
seum	-14.2818
▁producti	-14.2818
▁comb	-14.2822
▁Patien	-14.2823
resent	-14.2823
olph	-14.2831
▁emergen	-14.2832
▁balle	-14.2833
▁Swed	-14.2839
▁instructi	-14.2839
riting	-14.2845
4-8	-14.285
oftware	-14.2854
istration	-14.2858
▁Cre	-14.2862
▁vibrat	-14.2864
▁patr	-14.2867
Gra	-14.2869
ady	-14.2873
urniture	-14.2881
▁dyna	-14.2883
▁Chong	-14.2884
▁mainl	-14.2886
uise	-14.2889
resting	-14.289
scend	-14.2899
lter	-14.2902
mium	-14.2902
▁flopp	-14.2912
5-	-14.2914
chu	-14.2914
▁exer	-14.2917
▁Hart	-14.2924
543	-14.2929
ffee	-14.293
▁cond	-14.2941
dential	-14.2944
▁restor	-14.2958
sci	-14.296
rgeo	-14.2964
xchange	-14.2973
iotic	-14.2975
▁wack	-14.2977
▁Edd	-14.2978
establish	-14.298
▁clipp	-14.2983
621	-14.2987
earn	-14.2988
▁propert	-14.2992
occ	-14.2993
anner	-14.2997
DK	-14.3004
pati	-14.3017
▁luckies	-14.3018
▁domin	-14.3018
eal	-14.3018
dar	-14.3029
ounding	-14.3036
lone	-14.3036
▁terr	-14.3037
evolv	-14.3041
tty	-14.3041
▁tons	-14.3041
war	-14.3044
cc	-14.3046
▁erase	-14.3049
▁Diet	-14.3055
▁61	-14.3057
vi	-14.3058
▁385	-14.3058
.6	-14.3064
elo	-14.3064
▁organis	-14.3065
fty	-14.3066
velo	-14.3067
▁Confusi	-14.3077
62	-14.3078
cky	-14.3081
▁comple	-14.3081
dollars	-14.3093
jud	-14.3095
forest	-14.3102
▁Vick	-14.3104
▁dwell	-14.3105
ignment	-14.3121
▁Ball	-14.3123
▁gua	-14.3123
roup	-14.3127
▁Dou	-14.3127
ferri	-14.3129
assa	-14.3132
worn	-14.3133
825	-14.3137
▁cris	-14.314
ugh	-14.3147
fest	-14.3157
ield	-14.3157
present	-14.316
▁refle	-14.3171
▁Sc	-14.3174
Jian	-14.3176
ombi	-14.318
▁devot	-14.3184
consider	-14.3184
teacher	-14.3184
eters	-14.3191
▁runners	-14.3191
▁Benefi	-14.3198
mite	-14.3203
▁Proce	-14.3214
cleane	-14.3217
▁Steward	-14.3218
▁credibilit	-14.3229
▁Mela	-14.323
▁integra	-14.3235
liche	-14.3242
ailor	-14.3257
▁bumme	-14.3265
▁blende	-14.3266
hot	-14.3271
eceipt	-14.3276
▁Ku	-14.3277
tles	-14.3278
olong	-14.3279
▁attacker	-14.3283
uthern	-14.3291
▁Premier	-14.3293
ylan	-14.3299
radle	-14.3302
tly	-14.3304
▁boun	-14.3305
polog	-14.331
bric	-14.3313
▁comf	-14.3321
▁jag	-14.3323
olo	-14.3323
sgiving	-14.3332
▁Rat	-14.3334
ilding	-14.3343
▁divers	-14.3345
sted	-14.335
▁Nat	-14.3361
▁Californian	-14.3367
oeconomic	-14.3373
▁Mate	-14.3381
abilit	-14.3388
olish	-14.3388
64	-14.3402
vill	-14.3406
Par	-14.3417
xi	-14.3417
xpect	-14.3418
nlin	-14.3428
gger	-14.3433
cialist	-14.344
▁regist	-14.3447
rat	-14.3449
▁x	-14.3463
487	-14.3471
▁Donar	-14.3472
mart	-14.3493
feeble	-14.3497
▁troubleshoot	-14.3508
▁Chil	-14.3509
▁shameful	-14.3513
climat	-14.3514
▁amend	-14.3515
antic	-14.352
▁hom	-14.352
tuna	-14.3521
▁pear	-14.3523
atula	-14.3528
ker	-14.354
ggin	-14.3541
▁rot	-14.3546
▁laund	-14.3555
▁inco	-14.3563
dsheet	-14.3564
hicle	-14.3565
▁Chop	-14.3566
lady	-14.3579
actory	-14.358
▁alternat	-14.3584
lection	-14.3589
inted	-14.3597
▁macro	-14.3607
▁fla	-14.3608
peaking	-14.3609
ute	-14.3616
urn	-14.3625
mint	-14.3626
aken	-14.3632
▁Peach	-14.3645
scienti	-14.3658
ubb	-14.3659
▁eva	-14.3663
unter	-14.3667
leans	-14.368
▁coordinati	-14.3686
▁zipp	-14.3691
▁Vo	-14.3698
▁stripe	-14.3706
▁bumpe	-14.3712
▁shortl	-14.3722
BO	-14.3725
floor	-14.3725
273	-14.3729
might	-14.3739
▁Bobbi	-14.3744
gest	-14.3745
aundr	-14.3749
ingle	-14.375
af	-14.3753
▁Gun	-14.3762
inj	-14.3765
▁diabet	-14.3767
iod	-14.3768
▁fancie	-14.378
especial	-14.3783
bilities	-14.3789
mu	-14.3804
said	-14.3805
▁sty	-14.3817
allet	-14.3818
paya	-14.3818
finished	-14.383
planet	-14.3836
open	-14.384
▁Walt	-14.3842
lations	-14.3842
boo	-14.3845
▁propo	-14.3863
citi	-14.3865
rayed	-14.3867
lip	-14.387
Sh	-14.3874
▁bou	-14.3879
▁fizz	-14.3889
rvan	-14.3889
ief	-14.3897
▁refere	-14.3898
▁hatch	-14.3921
ructo	-14.3929
▁Alon	-14.3935
odles	-14.3962
Ver	-14.3973
kill	-14.3981
eve	-14.3987
▁lev	-14.3995
▁coordinat	-14.3999
▁embr	-14.4001
▁DP	-14.4011
cook	-14.4012
believe	-14.4016
▁Commo	-14.4019
▁Schn	-14.4022
etrol	-14.4023
▁wan	-14.4025
▁Mah	-14.4027
▁equaliz	-14.4033
sette	-14.4034
▁Madd	-14.4038
▁spelling	-14.4042
▁Yank	-14.4051
▁vol	-14.4059
thy	-14.4067
▁sor	-14.4071
melon	-14.4078
already	-14.4085
exic	-14.411
▁tre	-14.4113
▁Meli	-14.4115
▁Boss	-14.4116
▁15.	-14.4119
▁cla	-14.4121
CM	-14.4137
mini	-14.4144
ont	-14.4146
elco	-14.4152
Work	-14.4155
eed	-14.4156
▁rad	-14.4162
sky	-14.4164
shoulder	-14.4169
hilad	-14.4171
▁Bel	-14.4177
▁signifi	-14.4177
nging	-14.4184
peare	-14.4184
twenty	-14.4187
witz	-14.4188
▁Reds	-14.419
enj	-14.4198
earl	-14.42
uli	-14.4212
agen	-14.4212
stem	-14.4225
lphin	-14.4233
▁kar	-14.4237
asket	-14.4239
▁Serve	-14.424
▁controlle	-14.4243
popular	-14.4246
oct	-14.4251
▁mold	-14.4252
opywriter	-14.4262
izzy	-14.4266
abric	-14.4278
▁overdra	-14.428
shing	-14.4281
isn	-14.4286
▁expos	-14.4302
nsibilit	-14.4306
▁shill	-14.4308
▁indicati	-14.4313
notice	-14.4314
dresser	-14.4315
ult	-14.4315
ean	-14.4324
▁prob	-14.4326
xecutive	-14.4328
▁circula	-14.4334
▁Shower	-14.4335
▁kitt	-14.4339
▁industr	-14.4341
rella	-14.4342
agnos	-14.4343
ahead	-14.436
acada	-14.4372
▁0.1	-14.4375
▁Pho	-14.4377
rrect	-14.4378
cord	-14.4379
lounge	-14.4384
▁spreads	-14.4386
mall	-14.4387
film	-14.4388
▁sunda	-14.4403
deliver	-14.4407
▁Ad	-14.442
shooter	-14.4421
▁Electi	-14.4427
▁cellul	-14.4427
▁flake	-14.4433
▁vet	-14.4437
orm	-14.4449
guess	-14.4449
0-12	-14.4455
▁cuddle	-14.4457
▁beneficiar	-14.4462
shu	-14.4463
▁cli	-14.4465
trol	-14.4491
tti	-14.4522
roficien	-14.4523
enough	-14.4535
▁Jur	-14.4546
[...]
